unsigned char model_tflite[] = {
  0x1c, 0x00, 0x00, 0x00, 0x54, 0x46, 0x4c, 0x33, 0x14, 0x00, 0x20, 0x00,
  0x1c, 0x00, 0x18, 0x00, 0x14, 0x00, 0x10, 0x00, 0x0c, 0x00, 0x00, 0x00,
  0x08, 0x00, 0x04, 0x00, 0x14, 0x00, 0x00, 0x00, 0x1c, 0x00, 0x00, 0x00,
  0x8c, 0x00, 0x00, 0x00, 0xe4, 0x00, 0x00, 0x00, 0xec, 0x24, 0x00, 0x00,
  0xfc, 0x24, 0x00, 0x00, 0x18, 0x30, 0x00, 0x00, 0x03, 0x00, 0x00, 0x00,
  0x01, 0x00, 0x00, 0x00, 0x04, 0x00, 0x00, 0x00, 0x46, 0xd9, 0xff, 0xff,
  0x0c, 0x00, 0x00, 0x00, 0x1c, 0x00, 0x00, 0x00, 0x3c, 0x00, 0x00, 0x00,
  0x0f, 0x00, 0x00, 0x00, 0x73, 0x65, 0x72, 0x76, 0x69, 0x6e, 0x67, 0x5f,
  0x64, 0x65, 0x66, 0x61, 0x75, 0x6c, 0x74, 0x00, 0x01, 0x00, 0x00, 0x00,
  0x04, 0x00, 0x00, 0x00, 0x90, 0xff, 0xff, 0xff, 0x15, 0x00, 0x00, 0x00,
  0x04, 0x00, 0x00, 0x00, 0x08, 0x00, 0x00, 0x00, 0x6f, 0x75, 0x74, 0x70,
  0x75, 0x74, 0x5f, 0x30, 0x00, 0x00, 0x00, 0x00, 0x01, 0x00, 0x00, 0x00,
  0x04, 0x00, 0x00, 0x00, 0xa2, 0xdb, 0xff, 0xff, 0x04, 0x00, 0x00, 0x00,
  0x0f, 0x00, 0x00, 0x00, 0x6b, 0x65, 0x72, 0x61, 0x73, 0x5f, 0x74, 0x65,
  0x6e, 0x73, 0x6f, 0x72, 0x5f, 0x35, 0x36, 0x00, 0x02, 0x00, 0x00, 0x00,
  0x34, 0x00, 0x00, 0x00, 0x04, 0x00, 0x00, 0x00, 0xdc, 0xff, 0xff, 0xff,
  0x18, 0x00, 0x00, 0x00, 0x04, 0x00, 0x00, 0x00, 0x13, 0x00, 0x00, 0x00,
  0x43, 0x4f, 0x4e, 0x56, 0x45, 0x52, 0x53, 0x49, 0x4f, 0x4e, 0x5f, 0x4d,
  0x45, 0x54, 0x41, 0x44, 0x41, 0x54, 0x41, 0x00, 0x08, 0x00, 0x0c, 0x00,
  0x08, 0x00, 0x04, 0x00, 0x08, 0x00, 0x00, 0x00, 0x17, 0x00, 0x00, 0x00,
  0x04, 0x00, 0x00, 0x00, 0x13, 0x00, 0x00, 0x00, 0x6d, 0x69, 0x6e, 0x5f,
  0x72, 0x75, 0x6e, 0x74, 0x69, 0x6d, 0x65, 0x5f, 0x76, 0x65, 0x72, 0x73,
  0x69, 0x6f, 0x6e, 0x00, 0x19, 0x00, 0x00, 0x00, 0x04, 0x24, 0x00, 0x00,
  0xfc, 0x23, 0x00, 0x00, 0xe0, 0x23, 0x00, 0x00, 0x08, 0x23, 0x00, 0x00,
  0xb8, 0x22, 0x00, 0x00, 0x28, 0x22, 0x00, 0x00, 0x18, 0x02, 0x00, 0x00,
  0xc8, 0x01, 0x00, 0x00, 0xb4, 0x01, 0x00, 0x00, 0x24, 0x01, 0x00, 0x00,
  0x10, 0x01, 0x00, 0x00, 0xf8, 0x00, 0x00, 0x00, 0xe4, 0x00, 0x00, 0x00,
  0xdc, 0x00, 0x00, 0x00, 0xd4, 0x00, 0x00, 0x00, 0xcc, 0x00, 0x00, 0x00,
  0xc4, 0x00, 0x00, 0x00, 0xbc, 0x00, 0x00, 0x00, 0xb4, 0x00, 0x00, 0x00,
  0xac, 0x00, 0x00, 0x00, 0xa4, 0x00, 0x00, 0x00, 0x9c, 0x00, 0x00, 0x00,
  0x94, 0x00, 0x00, 0x00, 0x74, 0x00, 0x00, 0x00, 0x04, 0x00, 0x00, 0x00,
  0x82, 0xdc, 0xff, 0xff, 0x04, 0x00, 0x00, 0x00, 0x60, 0x00, 0x00, 0x00,
  0x10, 0x00, 0x00, 0x00, 0x00, 0x00, 0x00, 0x00, 0x08, 0x00, 0x0e, 0x00,
  0x08, 0x00, 0x04, 0x00, 0x08, 0x00, 0x00, 0x00, 0x10, 0x00, 0x00, 0x00,
  0x24, 0x00, 0x00, 0x00, 0x00, 0x00, 0x06, 0x00, 0x08, 0x00, 0x04, 0x00,
  0x06, 0x00, 0x00, 0x00, 0x04, 0x00, 0x00, 0x00, 0x00, 0x00, 0x00, 0x00,
  0x0c, 0x00, 0x18, 0x00, 0x14, 0x00, 0x10, 0x00, 0x0c, 0x00, 0x04, 0x00,
  0x0c, 0x00, 0x00, 0x00, 0x81, 0x23, 0x93, 0x9d, 0xec, 0x24, 0x89, 0x7b,
  0x02, 0x00, 0x00, 0x00, 0x02, 0x00, 0x00, 0x00, 0x04, 0x00, 0x00, 0x00,
  0x06, 0x00, 0x00, 0x00, 0x32, 0x2e, 0x31, 0x37, 0x2e, 0x30, 0x00, 0x00,
  0xee, 0xdc, 0xff, 0xff, 0x04, 0x00, 0x00, 0x00, 0x10, 0x00, 0x00, 0x00,
  0x31, 0x2e, 0x31, 0x34, 0x2e, 0x30, 0x00, 0x00, 0x00, 0x00, 0x00, 0x00,
  0x00, 0x00, 0x00, 0x00, 0x6c, 0xd1, 0xff, 0xff, 0x70, 0xd1, 0xff, 0xff,
  0x74, 0xd1, 0xff, 0xff, 0x78, 0xd1, 0xff, 0xff, 0x7c, 0xd1, 0xff, 0xff,
  0x80, 0xd1, 0xff, 0xff, 0x84, 0xd1, 0xff, 0xff, 0x88, 0xd1, 0xff, 0xff,
  0x8c, 0xd1, 0xff, 0xff, 0x90, 0xd1, 0xff, 0xff, 0x32, 0xdd, 0xff, 0xff,
  0x04, 0x00, 0x00, 0x00, 0x04, 0x00, 0x00, 0x00, 0xfd, 0xff, 0xff, 0xff,
  0x42, 0xdd, 0xff, 0xff, 0x04, 0x00, 0x00, 0x00, 0x08, 0x00, 0x00, 0x00,
  0xff, 0xff, 0xff, 0xff, 0x40, 0x00, 0x00, 0x00, 0x56, 0xdd, 0xff, 0xff,
  0x04, 0x00, 0x00, 0x00, 0x04, 0x00, 0x00, 0x00, 0x01, 0x00, 0x00, 0x00,
  0x66, 0xdd, 0xff, 0xff, 0x04, 0x00, 0x00, 0x00, 0x80, 0x00, 0x00, 0x00,
  0xb5, 0x57, 0xdc, 0xbb, 0x01, 0xe7, 0x22, 0xbe, 0x1a, 0x60, 0x02, 0xbe,
  0x5c, 0xaa, 0xf6, 0xbd, 0x6a, 0x3a, 0xd3, 0xbd, 0x00, 0x00, 0x00, 0x00,
  0x96, 0x7b, 0xb1, 0x3d, 0xfb, 0xa2, 0xf8, 0xbd, 0x74, 0x11, 0x0d, 0x3e,
  0x0b, 0x24, 0xb8, 0x3d, 0x22, 0x66, 0x43, 0xbd, 0x3a, 0xb1, 0xaf, 0xbd,
  0x00, 0x00, 0x00, 0x00, 0x5d, 0xfe, 0x3b, 0xbb, 0x0a, 0x81, 0xc0, 0xbc,
  0x2b, 0x91, 0xc2, 0xbd, 0xa8, 0x2b, 0xe8, 0x3d, 0x5d, 0x32, 0xdc, 0xbd,
  0xea, 0x06, 0xce, 0xbc, 0x73, 0xa1, 0x27, 0x3d, 0x52, 0xae, 0x87, 0xbc,
  0x56, 0x6c, 0xaf, 0xbd, 0x8a, 0xb6, 0x09, 0x3c, 0x9f, 0xce, 0x13, 0xbe,
  0xf9, 0x25, 0xe4, 0x3b, 0x00, 0x00, 0x00, 0x00, 0xbc, 0x46, 0xd0, 0x3d,
  0xb3, 0xd6, 0xde, 0x3d, 0xaa, 0x05, 0xde, 0xbd, 0x00, 0x00, 0x00, 0x00,
  0x00, 0x19, 0x93, 0x3d, 0x0c, 0xf2, 0xc2, 0xbd, 0xf2, 0xdd, 0xff, 0xff,
  0x04, 0x00, 0x00, 0x00, 0x04, 0x00, 0x00, 0x00, 0x7b, 0x55, 0xe7, 0xbe,
  0x02, 0xde, 0xff, 0xff, 0x04, 0x00, 0x00, 0x00, 0x40, 0x00, 0x00, 0x00,
  0x94, 0x94, 0xa0, 0xbc, 0x00, 0x00, 0x00, 0x00, 0x0b, 0xfc, 0x59, 0xbd,
  0x40, 0x98, 0xcd, 0xbc, 0xc5, 0xaf, 0x8e, 0x3d, 0x88, 0x44, 0xee, 0x3c,
  0x00, 0x00, 0x00, 0x00, 0x19, 0x2a, 0x34, 0xbe, 0xe4, 0x19, 0x8e, 0xbd,
  0xb0, 0x68, 0xa2, 0xbc, 0xe6, 0x28, 0x8c, 0xbc, 0x5f, 0x28, 0x88, 0x3d,
  0xa4, 0x88, 0x65, 0x3e, 0x92, 0x1c, 0x8c, 0x3d, 0x97, 0x55, 0x08, 0xbe,
  0xb2, 0x5a, 0x30, 0x3d, 0x4e, 0xde, 0xff, 0xff, 0x04, 0x00, 0x00, 0x00,
  0x00, 0x20, 0x00, 0x00, 0xbc, 0x21, 0x36, 0x3b, 0xc4, 0x5d, 0x5c, 0xbe,
  0x2f, 0xb9, 0x6a, 0x3c, 0xae, 0xbd, 0x01, 0xbe, 0xda, 0x20, 0x5b, 0xbe,
  0xc8, 0x36, 0x2d, 0xbd, 0x48, 0x9c, 0x88, 0x3d, 0x19, 0x5b, 0x62, 0xbd,
  0x3e, 0x60, 0x69, 0xbe, 0xd7, 0x40, 0x4f, 0x3e, 0x9d, 0xd3, 0xac, 0xbd,
  0x26, 0x1f, 0x7d, 0x3d, 0x70, 0x0c, 0x19, 0x3e, 0xfa, 0x62, 0xeb, 0x3d,
  0x60, 0xd7, 0x3a, 0x3d, 0x20, 0xce, 0xde, 0xbd, 0x3b, 0xfd, 0xd5, 0xbc,
  0xb0, 0x7d, 0x02, 0x3e, 0x68, 0xe5, 0xff, 0xbc, 0xa4, 0x41, 0x36, 0xbe,
  0x4e, 0xe8, 0xe0, 0x3d, 0x41, 0x12, 0x2e, 0xbe, 0xf4, 0x5f, 0x6a, 0x3e,
  0xde, 0xff, 0x39, 0xbe, 0x13, 0x1d, 0x00, 0x3e, 0x15, 0x99, 0x5a, 0xbd,
  0xf2, 0x9b, 0x21, 0x3e, 0x28, 0xa8, 0x7d, 0xbb, 0xd3, 0x13, 0x10, 0xbe,
  0xdc, 0xe3, 0x44, 0xbd, 0x39, 0x7c, 0xc6, 0x3d, 0xea, 0x55, 0x9c, 0x3d,
  0xf1, 0xec, 0x4b, 0x3d, 0xd0, 0xbe, 0xef, 0xbd, 0x02, 0x91, 0xbc, 0xbc,
  0xb8, 0xa4, 0xe4, 0x3d, 0x29, 0x93, 0xca, 0x3d, 0x42, 0x1e, 0x38, 0x3d,
  0x20, 0xfc, 0xfa, 0x3c, 0x1d, 0xea, 0x5f, 0xbe, 0x53, 0x72, 0x2b, 0xbd,
  0xea, 0x2d, 0x2e, 0xbe, 0x86, 0xb5, 0x17, 0x3c, 0x0a, 0x13, 0x72, 0xbe,
  0x16, 0x84, 0x49, 0xbe, 0x82, 0x59, 0x35, 0x3d, 0x2a, 0xea, 0x81, 0xbe,
  0x90, 0x16, 0x71, 0x3e, 0xef, 0x5a, 0xdb, 0xbd, 0x00, 0x24, 0x6a, 0xbd,
  0x21, 0x01, 0x3a, 0xbe, 0x27, 0xdd, 0x08, 0x3d, 0x84, 0xf6, 0x4d, 0xbe,
  0x71, 0x8b, 0x43, 0xbe, 0xec, 0x97, 0x1c, 0x3e, 0x6d, 0x01, 0x10, 0x3e,
  0x2d, 0x5b, 0x28, 0xbe, 0xcf, 0x74, 0x56, 0x3d, 0x87, 0x5e, 0x27, 0xbd,
  0xf0, 0x98, 0x72, 0x3e, 0x82, 0x3c, 0xc9, 0x3c, 0xa7, 0x7a, 0x1c, 0xbe,
  0xb1, 0x61, 0x3e, 0x3e, 0xfd, 0xf2, 0x75, 0x3e, 0x60, 0x5d, 0xb1, 0x3e,
  0x78, 0xfc, 0x6c, 0x3e, 0x77, 0x84, 0x01, 0x3f, 0x46, 0x00, 0x85, 0x3e,
  0xb0, 0xc1, 0xc3, 0x3e, 0xfa, 0x8b, 0x2e, 0xbc, 0x14, 0x5f, 0x67, 0xbe,
  0x49, 0xf2, 0xab, 0x3f, 0x68, 0xba, 0x53, 0x3e, 0x7b, 0xf1, 0x4d, 0x3e,
  0xb0, 0x12, 0x09, 0xbf, 0xa6, 0x84, 0x78, 0x3e, 0x48, 0x5e, 0x28, 0x3f,
  0x4c, 0xba, 0x8b, 0x3e, 0xb8, 0x4f, 0x04, 0x3f, 0x0d, 0xd3, 0x98, 0x3f,
  0x53, 0xff, 0x2e, 0x3f, 0xe4, 0x87, 0x04, 0xbe, 0xfe, 0xe4, 0x89, 0xbe,
  0xba, 0xc4, 0x0f, 0x3f, 0x8b, 0x38, 0x48, 0x3e, 0xac, 0xea, 0xfd, 0x3d,
  0x40, 0x2f, 0x7b, 0x3c, 0xb8, 0x06, 0x1a, 0x3f, 0x7f, 0x96, 0x32, 0x3e,
  0xca, 0x7d, 0x1e, 0x3e, 0x89, 0xaa, 0x61, 0xbe, 0x3e, 0x1b, 0x39, 0x3e,
  0xa1, 0x7b, 0x16, 0x3f, 0xd7, 0x1c, 0xab, 0x3e, 0x85, 0x3c, 0xfc, 0x3e,
  0xb2, 0x3e, 0x01, 0x3f, 0xfd, 0xbe, 0xc4, 0x3e, 0xb4, 0x80, 0x4a, 0xbe,
  0x18, 0x8d, 0x24, 0xbe, 0xa1, 0x3b, 0x14, 0x3f, 0x9c, 0x5b, 0x7c, 0x3e,
  0x0c, 0xa8, 0xa0, 0xbe, 0x90, 0xcd, 0xc0, 0xbd, 0x5d, 0xad, 0x19, 0x3f,
  0x79, 0x58, 0xbe, 0xbc, 0xcf, 0x88, 0x3d, 0xbe, 0x36, 0x18, 0xb7, 0xbd,
  0xdb, 0xb3, 0xfd, 0x3d, 0xb6, 0x80, 0x14, 0x3f, 0x2b, 0x49, 0x91, 0x3e,
  0x19, 0xf7, 0xd5, 0x3e, 0xa5, 0x12, 0x5f, 0x3f, 0xdf, 0x84, 0xdc, 0x3e,
  0x70, 0xb2, 0xab, 0xbd, 0x1a, 0xc7, 0x0f, 0x3e, 0x99, 0x4f, 0xdc, 0x3e,
  0x9a, 0xe3, 0x93, 0x3d, 0xa5, 0xe0, 0xc7, 0xbd, 0x88, 0xab, 0xfc, 0x3d,
  0x76, 0x8d, 0x92, 0x3f, 0x6c, 0x0a, 0xaa, 0x3d, 0x17, 0xf9, 0xcb, 0x3d,
  0x77, 0xed, 0xf7, 0xbd, 0x30, 0xac, 0x7e, 0xbe, 0xa7, 0xbb, 0x12, 0x3f,
  0x29, 0xe8, 0xf1, 0x3e, 0xc5, 0x75, 0x1b, 0x3f, 0x3b, 0x17, 0x1f, 0x3f,
  0xa8, 0xc6, 0x1f, 0x3f, 0xb8, 0xf3, 0x1a, 0xbe, 0x97, 0x6d, 0xe5, 0x3e,
  0x7f, 0x12, 0xb1, 0x3e, 0x1a, 0x56, 0x8f, 0x3d, 0x6f, 0x58, 0x08, 0xbe,
  0x48, 0x7a, 0x43, 0x3e, 0x53, 0x1b, 0x97, 0x3f, 0x6b, 0x30, 0x63, 0x3e,
  0xa7, 0x38, 0x1a, 0x3e, 0xe7, 0x05, 0x95, 0xbe, 0xca, 0x8f, 0x17, 0x3d,
  0xc7, 0xfa, 0xcd, 0x3e, 0x1d, 0x83, 0x43, 0x3e, 0xa1, 0x97, 0x04, 0x3f,
  0x21, 0xaf, 0x8a, 0x3f, 0xd4, 0xf5, 0x23, 0x3f, 0x30, 0x6a, 0xaf, 0xbd,
  0x3e, 0x14, 0x9f, 0xbe, 0xa4, 0xdc, 0x78, 0x3e, 0xfc, 0x13, 0xd9, 0x3c,
  0xa4, 0x30, 0x49, 0xbe, 0xd8, 0xcf, 0xe8, 0x3d, 0x70, 0x6d, 0xa7, 0x3e,
  0xde, 0xac, 0x9d, 0x3c, 0xce, 0x3f, 0x51, 0x3e, 0x9f, 0x04, 0x98, 0xbe,
  0xfb, 0xe9, 0x2a, 0x3e, 0xaa, 0x87, 0xe5, 0x3e, 0xfa, 0x35, 0xb8, 0x3e,
  0xc5, 0x1e, 0x84, 0x3e, 0x27, 0x4d, 0xd4, 0x3e, 0x32, 0x58, 0xc0, 0x3e,
  0xa0, 0xd9, 0x4b, 0xbd, 0xfd, 0xea, 0xa4, 0xbd, 0xf7, 0x9a, 0x9e, 0x3e,
  0x67, 0x1d, 0x5b, 0x3d, 0x36, 0x65, 0x89, 0xbe, 0xe0, 0xc0, 0xe8, 0x3d,
  0xc4, 0x57, 0x3b, 0x3f, 0x73, 0xcf, 0x6e, 0x3e, 0x13, 0x0d, 0x70, 0x3d,
  0x9d, 0x7a, 0x3a, 0xbd, 0x5d, 0x73, 0x65, 0x3e, 0xc5, 0x34, 0x14, 0x3f,
  0xdf, 0x9f, 0x8f, 0x3e, 0xce, 0xc9, 0x9c, 0x3e, 0x72, 0x64, 0x09, 0x3f,
  0xaf, 0x3b, 0xcd, 0x3e, 0xa0, 0xd6, 0x0d, 0x3e, 0xba, 0x2e, 0x31, 0xbe,
  0xa0, 0xb6, 0x15, 0x3f, 0xe0, 0x06, 0x9e, 0x3d, 0x49, 0xcb, 0xd7, 0x3c,
  0x60, 0xd7, 0x8b, 0xbc, 0xfe, 0xac, 0x1e, 0x3f, 0x77, 0x9f, 0x2a, 0xbd,
  0xd6, 0xd5, 0xe3, 0x3d, 0x44, 0x57, 0x1c, 0xbe, 0xb3, 0x55, 0xe0, 0x3d,
  0xd1, 0x9d, 0xc6, 0x3e, 0x33, 0x48, 0xd8, 0x3e, 0xc9, 0x37, 0x79, 0x3e,
  0x37, 0x2f, 0x3a, 0x3f, 0xdf, 0x35, 0x89, 0x3e, 0x28, 0x40, 0x3f, 0x3e,
  0xd0, 0x3e, 0xef, 0x3e, 0x0c, 0x88, 0xbd, 0x3e, 0xba, 0x0f, 0xae, 0x3e,
  0x88, 0x9f, 0x39, 0x3e, 0x04, 0x4f, 0x75, 0xbe, 0x7c, 0x27, 0xb6, 0x3f,
  0x3e, 0x8c, 0x25, 0x3e, 0x65, 0xa9, 0x87, 0x3e, 0x67, 0x18, 0x34, 0xbe,
  0xda, 0x3f, 0x31, 0x3e, 0xb1, 0xb2, 0x21, 0x3f, 0x2e, 0x53, 0xd8, 0x3e,
  0x99, 0xfb, 0x4f, 0x3f, 0x4b, 0x4a, 0x99, 0x3f, 0x9e, 0xa1, 0x3b, 0x3f,
  0xf8, 0xa9, 0xc0, 0x3d, 0x45, 0x31, 0xa4, 0xbd, 0x11, 0xc7, 0x17, 0x3f,
  0xf5, 0x3b, 0x30, 0x3e, 0xff, 0xc4, 0x30, 0x3d, 0x98, 0x32, 0xca, 0x3d,
  0x19, 0xf4, 0x5d, 0x3f, 0xdc, 0xc8, 0x07, 0x3e, 0x64, 0x8f, 0x4e, 0x3c,
  0x6c, 0xe0, 0x35, 0xbd, 0x8d, 0x17, 0x86, 0x3e, 0x9e, 0xb2, 0xdc, 0x3e,
  0xe1, 0xdd, 0x91, 0x3e, 0x69, 0xe6, 0x08, 0x3f, 0xe4, 0xe5, 0x0e, 0x3f,
  0xf0, 0x76, 0xba, 0x3e, 0x14, 0x54, 0x22, 0x3e, 0xc5, 0x5b, 0x0b, 0xbe,
  0xb3, 0x93, 0x18, 0x3f, 0x93, 0x9e, 0x57, 0x3e, 0x65, 0xd9, 0xb7, 0xbd,
  0x60, 0x78, 0x7c, 0xbd, 0x12, 0x09, 0x13, 0x3f, 0xb6, 0x57, 0x83, 0xbd,
  0x38, 0x9f, 0xd8, 0xbd, 0xf7, 0xcd, 0x10, 0xbe, 0xdf, 0x57, 0x65, 0xbc,
  0x16, 0x85, 0xe9, 0x3e, 0xd9, 0xd4, 0x7a, 0x3e, 0xc2, 0x22, 0x23, 0x3f,
  0x42, 0xda, 0x29, 0x3f, 0xe3, 0xec, 0xf8, 0x3e, 0x00, 0xde, 0x1b, 0x3d,
  0xa2, 0x3f, 0x76, 0x3e, 0xc0, 0x48, 0x32, 0x3f, 0x38, 0x27, 0xd5, 0xbd,
  0x58, 0xfc, 0x57, 0xbe, 0xe0, 0x9a, 0x56, 0x3e, 0xd0, 0x3f, 0x8b, 0x3f,
  0x17, 0xfd, 0x13, 0x3e, 0x3d, 0xda, 0x3b, 0xbe, 0xfb, 0xca, 0xb3, 0xbe,
  0x96, 0x95, 0xe2, 0xbd, 0x62, 0x2c, 0x1b, 0x3f, 0x4e, 0xeb, 0xa9, 0x3e,
  0x6d, 0x8d, 0xd7, 0x3e, 0x0f, 0x71, 0xfb, 0x3e, 0x2e, 0x73, 0x03, 0x3e,
  0x80, 0x39, 0xe9, 0x3c, 0xf8, 0x53, 0xf2, 0x3e, 0x17, 0xbf, 0x36, 0x3e,
  0x9f, 0xa1, 0x04, 0xbe, 0xcf, 0x6a, 0xc3, 0x3d, 0x70, 0xbb, 0x48, 0xbd,
  0xb6, 0x8d, 0x9c, 0x3f, 0x21, 0x64, 0x78, 0xbd, 0xff, 0x59, 0x5a, 0x3d,
  0x89, 0x12, 0xab, 0xbe, 0xf0, 0x1b, 0x3e, 0x3e, 0x29, 0x4a, 0xac, 0x3e,
  0x86, 0xd5, 0x88, 0x3e, 0x66, 0xd1, 0x42, 0x3f, 0xde, 0x05, 0x81, 0x3f,
  0x88, 0xbb, 0xd3, 0x3e, 0x18, 0x3c, 0xb6, 0xbd, 0x33, 0x4a, 0xeb, 0x3d,
  0x99, 0xcd, 0x07, 0x3e, 0xd2, 0x19, 0x50, 0x3e, 0x9c, 0x4d, 0xd7, 0x3d,
  0xb0, 0xf6, 0x41, 0xbd, 0xa0, 0xf9, 0x28, 0x3f, 0x0f, 0x4f, 0x8c, 0x3d,
  0xfa, 0xea, 0x12, 0xbe, 0xda, 0xd9, 0xd7, 0x3d, 0xbb, 0x26, 0x28, 0x3d,
  0xdb, 0xab, 0xaa, 0x3e, 0x21, 0x22, 0x3d, 0x3e, 0xc8, 0xe6, 0x2d, 0x3e,
  0x3c, 0x13, 0xd1, 0x3e, 0x0b, 0x78, 0xe2, 0x3e, 0xd0, 0x40, 0xa9, 0xbd,
  0xfd, 0x01, 0x24, 0xbd, 0x5a, 0xe2, 0x0c, 0x3f, 0x37, 0x09, 0x85, 0xbe,
  0x70, 0xd2, 0xb4, 0x3c, 0x80, 0x9b, 0xeb, 0xbb, 0x3c, 0xe4, 0x08, 0x3f,
  0x5f, 0x94, 0x20, 0x3e, 0x7b, 0xd2, 0x37, 0xbe, 0xae, 0x5d, 0x9b, 0xbe,
  0x0d, 0x36, 0x9e, 0x3c, 0x9d, 0xa0, 0x95, 0x3e, 0x41, 0xff, 0x48, 0x3e,
  0x69, 0x8d, 0xc9, 0x3e, 0x93, 0x66, 0x11, 0x3f, 0x7e, 0x5f, 0x02, 0x3f,
  0x40, 0x84, 0xee, 0xbc, 0x64, 0x1e, 0xe2, 0x3d, 0xb1, 0xf9, 0x14, 0x3f,
  0x49, 0x15, 0x12, 0x3d, 0x7b, 0xb2, 0x0a, 0xbe, 0x20, 0x4f, 0xf2, 0x3c,
  0xa3, 0xa2, 0x38, 0x3f, 0x2d, 0x65, 0xd2, 0x3d, 0xcb, 0xb8, 0xe8, 0x3d,
  0xe7, 0x5a, 0x1c, 0xbe, 0x02, 0xf7, 0x1e, 0xbe, 0xa0, 0x93, 0x14, 0x3f,
  0x58, 0x3b, 0xc6, 0x3d, 0xe1, 0x10, 0x1b, 0x3f, 0xb9, 0xc7, 0x98, 0x3e,
  0x30, 0x1f, 0x80, 0x3d, 0x80, 0xd0, 0xdd, 0x3c, 0xfc, 0x2f, 0x1d, 0x3e,
  0xd4, 0x09, 0x05, 0x3e, 0x30, 0x88, 0x53, 0x3d, 0x24, 0x3d, 0x64, 0xbe,
  0x10, 0x75, 0x9e, 0x3d, 0x80, 0x73, 0xf4, 0x3b, 0x58, 0xab, 0x24, 0xbe,
  0xd8, 0x09, 0xb3, 0xbd, 0x14, 0x20, 0x67, 0x3e, 0x88, 0x0b, 0xa4, 0xbd,
  0xc0, 0x9c, 0x65, 0xbd, 0xfc, 0xfe, 0x47, 0x3e, 0x40, 0xb0, 0xde, 0xbd,
  0x64, 0x47, 0x06, 0x3e, 0x00, 0x4c, 0xb6, 0x3a, 0x20, 0x04, 0x76, 0x3e,
  0xb4, 0x35, 0x67, 0xbe, 0x54, 0x7d, 0x6e, 0xbe, 0x40, 0xcf, 0x47, 0xbe,
  0x6c, 0x9f, 0x69, 0xbe, 0x0c, 0x27, 0x10, 0x3e, 0x40, 0xec, 0x49, 0xbe,
  0x6c, 0x61, 0x19, 0x3e, 0x5c, 0xaa, 0x7d, 0x3e, 0x74, 0xeb, 0x18, 0x3e,
  0x04, 0x73, 0x1f, 0x3e, 0xf8, 0xda, 0xdb, 0xbd, 0x50, 0x43, 0x44, 0x3e,
  0xd0, 0x0e, 0x7b, 0xbd, 0x34, 0x4a, 0x10, 0x3e, 0x6c, 0xeb, 0x3f, 0xbe,
  0xf0, 0xec, 0x3d, 0x3d, 0xf0, 0x52, 0xe0, 0xbd, 0x20, 0x8b, 0xf8, 0x3c,
  0x80, 0x5d, 0xfb, 0x3c, 0xc0, 0x5b, 0x29, 0x3e, 0xb0, 0x16, 0x5e, 0x3e,
  0x90, 0xaf, 0x0e, 0x3e, 0x88, 0x2c, 0xa0, 0x3d, 0x8c, 0x65, 0x2b, 0xbe,
  0x44, 0xb9, 0x5a, 0x3e, 0xc4, 0xff, 0x43, 0xbe, 0xd0, 0xdb, 0xc3, 0xbd,
  0xf0, 0xbc, 0x4c, 0xbd, 0xf8, 0xba, 0x0d, 0xbe, 0x60, 0x92, 0x27, 0x3e,
  0x08, 0x70, 0x5f, 0xbe, 0x68, 0x5f, 0x0b, 0xbe, 0x54, 0x6d, 0x78, 0xbe,
  0x78, 0xb9, 0xe2, 0x3d, 0x00, 0x33, 0x3a, 0x3e, 0xd0, 0x25, 0x6d, 0xbe,
  0x98, 0x8f, 0x1d, 0xbe, 0x0c, 0xed, 0x4c, 0x3e, 0x8c, 0x22, 0x08, 0xbe,
  0x28, 0x5b, 0x01, 0xbe, 0x2c, 0x0e, 0x25, 0x3e, 0xa0, 0xb9, 0x6a, 0xbe,
  0x3c, 0x4d, 0x0e, 0xbe, 0x80, 0x41, 0x85, 0xbc, 0x74, 0x58, 0x09, 0xbe,
  0x50, 0xc3, 0xcb, 0xbd, 0x6a, 0x2f, 0x77, 0xbf, 0xa4, 0x99, 0x16, 0xbe,
  0xc1, 0xcc, 0x41, 0xbf, 0x48, 0xfc, 0x1b, 0xbf, 0x21, 0xfe, 0x2f, 0xbf,
  0x34, 0x92, 0x1f, 0xbe, 0x00, 0x34, 0xb6, 0xba, 0x2e, 0xfb, 0xb6, 0xbf,
  0x3b, 0x95, 0x0a, 0xbe, 0x80, 0x6d, 0x41, 0x3e, 0xdd, 0x37, 0x10, 0xbe,
  0xac, 0x7f, 0x3a, 0xbf, 0x40, 0xaf, 0x37, 0xbe, 0x75, 0x13, 0x1d, 0xbf,
  0x3b, 0xe5, 0x99, 0xbf, 0xf2, 0x0e, 0x38, 0xbf, 0x57, 0xf4, 0x95, 0xbf,
  0xa8, 0xf7, 0xf0, 0xbd, 0xaa, 0xab, 0xcc, 0xbe, 0x46, 0xec, 0x5c, 0xbf,
  0xbd, 0x89, 0xd7, 0xbe, 0x86, 0xab, 0x6c, 0x3e, 0x28, 0x75, 0x88, 0x3d,
  0x39, 0x97, 0x75, 0xbf, 0x07, 0x98, 0x88, 0x3c, 0x81, 0x0b, 0x82, 0x3e,
  0x81, 0x02, 0xa3, 0x3d, 0x6e, 0xa1, 0x12, 0xbf, 0x62, 0x63, 0x86, 0xbe,
  0x56, 0x25, 0x44, 0xbe, 0xa1, 0x8d, 0x6a, 0xbf, 0x78, 0xbf, 0x0f, 0xbf,
  0x1b, 0x9c, 0x79, 0xbf, 0x50, 0xfb, 0xff, 0x3d, 0x94, 0x80, 0x01, 0xbd,
  0xac, 0x00, 0x42, 0xbf, 0x60, 0x07, 0x4a, 0xbf, 0xf8, 0x1d, 0x0a, 0xbe,
  0x9c, 0x55, 0x04, 0x3e, 0x2f, 0x4e, 0x9e, 0xbf, 0x99, 0x11, 0x9e, 0xbd,
  0x2d, 0x81, 0x8d, 0x3e, 0x31, 0x7f, 0x55, 0x3e, 0x33, 0xa0, 0x11, 0xbf,
  0xf4, 0x2c, 0xa3, 0xbd, 0x71, 0x3b, 0xde, 0xbe, 0x01, 0xc6, 0xfa, 0xbe,
  0x68, 0xc6, 0x0d, 0xbf, 0xe0, 0x21, 0x28, 0xbf, 0x48, 0x98, 0xfd, 0xbd,
  0x00, 0xd6, 0x28, 0xbe, 0x45, 0x5d, 0x74, 0xbf, 0x1a, 0xe4, 0xae, 0xbe,
  0xdb, 0x57, 0x52, 0x3e, 0xd0, 0x81, 0x67, 0x3d, 0x97, 0x13, 0xa6, 0xbf,
  0x2a, 0x52, 0x08, 0xbe, 0x06, 0x22, 0x85, 0x3e, 0xa3, 0x6b, 0x1a, 0xbd,
  0xd6, 0xb1, 0xbc, 0xbe, 0x7e, 0x50, 0xc7, 0xbe, 0x6c, 0x5e, 0x00, 0xbf,
  0xf6, 0x9f, 0x15, 0xbf, 0x1e, 0xea, 0x06, 0xbe, 0x99, 0xa7, 0x29, 0x3f,
  0x4c, 0x78, 0x45, 0xbe, 0x95, 0x77, 0xf5, 0x3e, 0xf0, 0x4d, 0xa0, 0x3e,
  0xd0, 0x7d, 0x94, 0x3e, 0x4b, 0xa9, 0xa9, 0x3d, 0x88, 0xb6, 0x30, 0x3e,
  0x89, 0x4d, 0x91, 0x3f, 0x5b, 0x8c, 0x0f, 0x3e, 0x81, 0x22, 0x06, 0x3e,
  0x54, 0xb5, 0xf8, 0xbe, 0xbc, 0xd2, 0xce, 0x3e, 0x24, 0xe2, 0xca, 0x3e,
  0xef, 0x05, 0x68, 0x3e, 0x58, 0xa3, 0x70, 0x3f, 0xe1, 0x2d, 0xa0, 0x3f,
  0x14, 0xe8, 0xc3, 0x3e, 0x48, 0x46, 0xc3, 0x3d, 0xb9, 0x40, 0xb0, 0x3d,
  0xf0, 0xbb, 0x9a, 0x3e, 0x73, 0x24, 0x70, 0x3e, 0x00, 0xdb, 0x2e, 0xbe,
  0x40, 0x1c, 0x8f, 0xbd, 0x28, 0x06, 0x4b, 0x3f, 0x1f, 0x7c, 0x48, 0x3e,
  0xe6, 0xaf, 0xa5, 0x3d, 0x52, 0xa2, 0x38, 0xbe, 0xbb, 0x1a, 0x03, 0x3e,
  0x79, 0x62, 0x0b, 0x3f, 0x1c, 0xc1, 0xbf, 0x3e, 0xc5, 0xd3, 0x21, 0x3f,
  0x24, 0x63, 0x4c, 0x3f, 0x41, 0xca, 0x9d, 0x3e, 0xe8, 0xe1, 0xbe, 0xbd,
  0x97, 0xcf, 0x06, 0xbe, 0x42, 0x25, 0x02, 0x3e, 0x92, 0x92, 0x9b, 0x3d,
  0xc9, 0xf0, 0x70, 0xbe, 0x60, 0x0a, 0x77, 0x3e, 0x5f, 0xa9, 0x57, 0x3f,
  0x6d, 0x4c, 0x6a, 0x3e, 0x11, 0xcc, 0x52, 0xbe, 0x72, 0x0d, 0x20, 0xbe,
  0x04, 0x2a, 0x77, 0x3e, 0xd4, 0xc0, 0x20, 0x3f, 0xb9, 0x9a, 0x05, 0x3f,
  0x17, 0x30, 0x14, 0x3f, 0xf7, 0x31, 0x35, 0x3f, 0x10, 0x6c, 0x46, 0x3f,
  0xd0, 0x8b, 0x32, 0x3d, 0x9e, 0x89, 0xe3, 0xbd, 0x07, 0xb9, 0x9b, 0x3e,
  0x83, 0xd4, 0xf1, 0x3d, 0x9f, 0xef, 0x47, 0x3e, 0x40, 0x54, 0xf1, 0x3c,
  0x19, 0x49, 0xa3, 0x3f, 0xac, 0xd7, 0x9e, 0xbd, 0x4c, 0x9a, 0x19, 0x3d,
  0x22, 0x06, 0x83, 0x3d, 0xf2, 0xd7, 0x47, 0xbd, 0xb5, 0x06, 0xc8, 0x3e,
  0x8e, 0x2e, 0xb5, 0x3e, 0x65, 0x8c, 0x0c, 0x3f, 0xce, 0xa5, 0x0f, 0x3f,
  0x0e, 0xe3, 0x27, 0xbf, 0x70, 0xbc, 0x56, 0x3d, 0x04, 0x3d, 0x19, 0xbf,
  0xd8, 0x0e, 0x31, 0xbf, 0xfa, 0xbb, 0xd0, 0xbe, 0x20, 0xa2, 0x40, 0xbe,
  0x00, 0x99, 0x9f, 0x3d, 0x21, 0xec, 0xbc, 0xbf, 0x5d, 0x9e, 0x36, 0xbe,
  0x3e, 0x2f, 0x19, 0x3e, 0x5f, 0x08, 0xd9, 0xbc, 0x1e, 0x4a, 0x97, 0xbe,
  0x73, 0xa4, 0x23, 0xbe, 0x98, 0x28, 0xd7, 0xbe, 0xb3, 0x85, 0x93, 0xbf,
  0x0b, 0x6a, 0x1e, 0xbf, 0x0e, 0x72, 0x21, 0xbf, 0xb0, 0xde, 0x19, 0x3d,
  0xaa, 0x74, 0x37, 0xbe, 0xbd, 0xa0, 0x6d, 0xbf, 0x73, 0xf4, 0xc1, 0xbe,
  0x65, 0x60, 0x8a, 0x3d, 0xd0, 0xe6, 0x4f, 0xbd, 0x0b, 0xb6, 0x6a, 0xbf,
  0x3a, 0x39, 0x6e, 0x3e, 0x2d, 0xf7, 0xdd, 0x3c, 0x2c, 0x56, 0x6c, 0x3e,
  0xb4, 0xa4, 0xdb, 0xbe, 0xe4, 0x21, 0x4c, 0xbe, 0xf4, 0x84, 0x1e, 0xbf,
  0x4e, 0x57, 0x2e, 0xbf, 0x98, 0x4b, 0x00, 0xbf, 0x4f, 0xbb, 0xf7, 0xbe,
  0x60, 0x37, 0xb2, 0xbd, 0xfd, 0x48, 0x35, 0x3d, 0x75, 0x4f, 0xe7, 0xbe,
  0x86, 0xd1, 0xa4, 0xbe, 0x93, 0x42, 0x71, 0x3e, 0x28, 0xd8, 0xf1, 0x3d,
  0xd4, 0x64, 0x88, 0xbf, 0x99, 0xfb, 0x9f, 0x3e, 0x50, 0x4b, 0x67, 0xbd,
  0x3c, 0xd4, 0xb7, 0x3e, 0x4c, 0x09, 0xa5, 0xbe, 0xf6, 0xac, 0x12, 0xbf,
  0x2c, 0xe0, 0xc9, 0xbe, 0xcd, 0x7e, 0x63, 0xbf, 0xe0, 0x6e, 0x55, 0xbf,
  0xda, 0x07, 0x34, 0xbf, 0x68, 0x72, 0x9e, 0xbd, 0x62, 0x2d, 0x40, 0x3e,
  0xf7, 0xf4, 0x3f, 0xbf, 0xd5, 0x1d, 0x88, 0xbe, 0xe5, 0xda, 0x6b, 0x3e,
  0x40, 0xaa, 0x57, 0x3e, 0xfc, 0xda, 0x8f, 0xbf, 0x88, 0x2b, 0x92, 0x3e,
  0xf2, 0x77, 0x98, 0x3d, 0x74, 0xa7, 0x58, 0x3b, 0x04, 0x7c, 0x0d, 0x3e,
  0xfd, 0xa1, 0x37, 0xbf, 0x51, 0xe2, 0x6c, 0xbe, 0x23, 0x58, 0x1b, 0xbf,
  0xf7, 0x85, 0xbb, 0xbe, 0xd7, 0x2e, 0x39, 0xbf, 0x40, 0xae, 0x00, 0x3d,
  0x4d, 0x5d, 0x77, 0xbf, 0x23, 0xe0, 0xb5, 0xbe, 0x7c, 0x54, 0x4f, 0xbe,
  0x96, 0x4d, 0x92, 0x3e, 0x78, 0x8a, 0x0a, 0x3e, 0x8b, 0xd8, 0xb9, 0xbf,
  0x12, 0x17, 0x84, 0xbe, 0x37, 0x07, 0x59, 0x3e, 0x95, 0x63, 0x98, 0xbb,
  0x47, 0xab, 0xb1, 0xbe, 0x71, 0x7c, 0x90, 0xbe, 0x86, 0xf6, 0x28, 0xbf,
  0x68, 0x3e, 0x8f, 0xbf, 0x12, 0xd7, 0x67, 0xbf, 0xf5, 0xa4, 0x6c, 0xbf,
  0x08, 0x2b, 0x77, 0x3e, 0x5f, 0x9f, 0xf2, 0xbd, 0x26, 0xf0, 0x4b, 0xbf,
  0x50, 0xfc, 0x7d, 0xbe, 0xaa, 0xb6, 0xa9, 0x3e, 0x88, 0x16, 0xda, 0xbd,
  0x06, 0xcc, 0x8c, 0xbf, 0x5c, 0x67, 0x00, 0x3d, 0xa6, 0x91, 0xbc, 0xbd,
  0xd4, 0xd5, 0x27, 0x3e, 0x27, 0x9c, 0x27, 0xbe, 0x0e, 0xc7, 0x0a, 0xbf,
  0x21, 0x72, 0x81, 0xbe, 0x19, 0x97, 0x1d, 0xbf, 0x97, 0xbb, 0x3b, 0xbf,
  0x8b, 0xe2, 0x64, 0xbf, 0xc0, 0x35, 0x59, 0x3e, 0x09, 0x8e, 0x31, 0xbe,
  0xf9, 0x3e, 0x5e, 0xbf, 0xc8, 0xc4, 0x5a, 0xbe, 0x3a, 0x26, 0x9c, 0x3e,
  0xb0, 0x40, 0x10, 0xbd, 0x76, 0x71, 0x5a, 0xbf, 0x8a, 0x46, 0xca, 0x3d,
  0xa2, 0x49, 0xa5, 0x3e, 0x30, 0x05, 0x1d, 0xbe, 0x21, 0x24, 0x37, 0xbf,
  0xb1, 0x52, 0x47, 0xbf, 0x46, 0x02, 0xd4, 0xbe, 0x6a, 0xd0, 0x18, 0xbf,
  0xad, 0x51, 0x44, 0xbf, 0x74, 0x6e, 0x18, 0xbf, 0xe0, 0x8a, 0xe7, 0xbc,
  0xfe, 0xc4, 0x8c, 0xbe, 0x69, 0xe0, 0x6c, 0xbf, 0xbe, 0x86, 0x94, 0xbe,
  0x95, 0xee, 0x76, 0xbd, 0x40, 0xb1, 0xc2, 0x3c, 0x2b, 0xbe, 0xae, 0xbf,
  0xe9, 0x47, 0x8f, 0x3e, 0x65, 0x86, 0x52, 0x3e, 0xc4, 0x13, 0xb9, 0xbd,
  0x49, 0x48, 0xef, 0x3c, 0xc8, 0x83, 0x02, 0xbf, 0x48, 0x5a, 0xad, 0xbe,
  0x76, 0x0a, 0x20, 0xbf, 0xa9, 0xd1, 0xb9, 0xbe, 0x42, 0x3b, 0xb1, 0x3c,
  0x70, 0x14, 0x1a, 0xbd, 0xef, 0x4d, 0x0f, 0xbe, 0x1c, 0x3b, 0x29, 0x3d,
  0xf0, 0x3d, 0x93, 0xbe, 0xe3, 0x6f, 0xfc, 0xbb, 0x9c, 0x6a, 0x1e, 0x3e,
  0xdf, 0x64, 0x3d, 0xbe, 0x76, 0x52, 0x05, 0x3e, 0x6d, 0x12, 0x25, 0x3e,
  0x03, 0xf1, 0x24, 0xbd, 0xdc, 0x5a, 0x10, 0xbd, 0xb5, 0x32, 0x7f, 0xbe,
  0xe6, 0x54, 0x37, 0x3e, 0xeb, 0x92, 0x6f, 0xbe, 0xe6, 0x23, 0x3d, 0xbe,
  0x7e, 0x77, 0xf6, 0x3c, 0x64, 0x8c, 0x37, 0x3e, 0x0d, 0x34, 0x3a, 0x3b,
  0x1b, 0x16, 0x29, 0xbe, 0x22, 0x25, 0x04, 0x3e, 0x1f, 0x86, 0xf9, 0x3d,
  0xbc, 0xb7, 0x2e, 0x3e, 0x11, 0x6d, 0xc2, 0x3d, 0x26, 0x1b, 0x8a, 0xbe,
  0x69, 0xa7, 0x49, 0xbe, 0x06, 0xd6, 0x89, 0xbe, 0xa1, 0x22, 0xda, 0xbd,
  0x63, 0xe6, 0x1d, 0xbe, 0xa1, 0x1f, 0x47, 0x3e, 0x66, 0xbc, 0x27, 0xbd,
  0x1a, 0xa3, 0x63, 0x39, 0x3b, 0x57, 0xba, 0xbc, 0xb0, 0x56, 0x3e, 0xbe,
  0x01, 0x56, 0x6c, 0x3d, 0x38, 0x00, 0x77, 0xbe, 0xad, 0x57, 0x98, 0xbc,
  0xce, 0x26, 0x83, 0xbe, 0x40, 0xf9, 0x82, 0xbc, 0x30, 0x14, 0xfb, 0xbc,
  0x27, 0x74, 0x80, 0xbe, 0xd0, 0x47, 0xc5, 0xbd, 0xad, 0x0b, 0x69, 0xbe,
  0xde, 0xf2, 0x8d, 0xbe, 0x45, 0x4b, 0xea, 0x3d, 0x8a, 0x09, 0x0c, 0x3e,
  0x03, 0x8d, 0x82, 0xbd, 0x24, 0xb3, 0x85, 0xbe, 0x8f, 0x4e, 0x0b, 0xbe,
  0xa8, 0x62, 0x73, 0x3e, 0x62, 0xcb, 0x72, 0x3e, 0x9f, 0x6d, 0x74, 0xbc,
  0xf8, 0xfd, 0x6e, 0x3d, 0xa7, 0x9c, 0x1b, 0x3e, 0x98, 0xd8, 0xb6, 0x3d,
  0x80, 0x84, 0x14, 0x3e, 0xed, 0x80, 0xc1, 0xbd, 0xa9, 0x67, 0x68, 0xbe,
  0xe5, 0x78, 0x95, 0x3d, 0x99, 0x0f, 0x24, 0xbe, 0xdb, 0xd2, 0x2a, 0xbd,
  0x79, 0x64, 0x5b, 0x3e, 0x9c, 0x3d, 0x16, 0xbe, 0x83, 0x5a, 0x3a, 0xbe,
  0xe7, 0xdf, 0x24, 0x3f, 0x88, 0x40, 0x16, 0x3e, 0xf7, 0x5f, 0x1e, 0x3f,
  0x3c, 0xf2, 0xe2, 0x3e, 0xf4, 0xe8, 0x20, 0xbd, 0x44, 0x8f, 0x0c, 0x3e,
  0xd0, 0x16, 0x9d, 0xbd, 0x51, 0xcb, 0x8d, 0x3f, 0x9b, 0xb0, 0xe5, 0x3c,
  0x1e, 0xfa, 0xf1, 0xbb, 0x8a, 0x13, 0xee, 0xbd, 0xc1, 0x2e, 0xfc, 0x3d,
  0xa8, 0x8a, 0xa3, 0x3e, 0x7d, 0x5d, 0x85, 0x3e, 0x63, 0x79, 0x58, 0x3f,
  0xa2, 0x49, 0x46, 0x3f, 0xc8, 0xb7, 0x03, 0x3f, 0x00, 0x98, 0xcf, 0xbb,
  0x25, 0xc3, 0x4b, 0xbe, 0xe5, 0xdc, 0xaf, 0x3e, 0x22, 0xf6, 0x6a, 0x3e,
  0xd3, 0x7e, 0x10, 0x3e, 0xe0, 0x64, 0xdb, 0xbc, 0x59, 0x01, 0xd7, 0x3e,
  0xa5, 0x19, 0x7a, 0x3e, 0x37, 0x94, 0x4d, 0xbd, 0x87, 0x7f, 0xb6, 0xbe,
  0x41, 0x18, 0x11, 0x3e, 0xd5, 0x3f, 0x0e, 0x3f, 0xb4, 0xd5, 0xce, 0x3e,
  0x71, 0x24, 0xc8, 0x3e, 0xd2, 0x8e, 0xb5, 0x3e, 0x41, 0x43, 0xbf, 0x3e,
  0x3c, 0x6d, 0x09, 0x3e, 0xe2, 0x3c, 0x3b, 0xbe, 0xd7, 0x3b, 0xd4, 0x3e,
  0xee, 0x7d, 0xab, 0xbd, 0x76, 0x78, 0x99, 0xbd, 0x68, 0x9a, 0x0d, 0xbe,
  0x07, 0x01, 0x39, 0x3f, 0x6e, 0x29, 0x09, 0xbe, 0x29, 0xe9, 0x7a, 0x3e,
  0xd9, 0x1f, 0xb2, 0xbe, 0x1d, 0x97, 0x62, 0x3d, 0xa5, 0xf0, 0x21, 0x3f,
  0xdb, 0x7c, 0xb9, 0x3e, 0x67, 0x6d, 0x33, 0x3e, 0xf2, 0x28, 0x33, 0x3f,
  0x94, 0xc5, 0x08, 0x3f, 0x80, 0x0c, 0x58, 0xbc, 0xe5, 0x04, 0x0f, 0x3e,
  0xf9, 0x68, 0x09, 0x3f, 0x3f, 0x9f, 0x73, 0xbe, 0xf6, 0xe1, 0x3d, 0xbe,
  0x3c, 0x65, 0x68, 0x3e, 0x6c, 0x3e, 0x34, 0x3f, 0xed, 0xc9, 0x51, 0xbd,
  0x6a, 0xae, 0xc9, 0xbd, 0x91, 0x07, 0x44, 0xbe, 0xf7, 0x84, 0x81, 0x3b,
  0x06, 0xd7, 0xd6, 0x3e, 0xe6, 0xa5, 0x09, 0x3f, 0x13, 0x1f, 0xe8, 0x3e,
  0x98, 0x57, 0x3a, 0x3f, 0x4c, 0xb4, 0x34, 0xbe, 0x9c, 0x9d, 0x32, 0xbe,
  0xd0, 0xd4, 0x43, 0xbe, 0x28, 0xf6, 0x36, 0xbe, 0x70, 0xe4, 0x58, 0xbe,
  0xbc, 0x16, 0x45, 0xbe, 0xd8, 0x87, 0xfb, 0x3d, 0x10, 0x19, 0x84, 0x3d,
  0x80, 0xe5, 0x7e, 0xbe, 0x8c, 0x17, 0x26, 0xbe, 0x5c, 0x91, 0x4c, 0x3e,
  0x20, 0x18, 0x88, 0xbc, 0x00, 0xce, 0x67, 0x3b, 0x1c, 0x28, 0x21, 0xbe,
  0xa8, 0xe6, 0xc8, 0x3d, 0xf0, 0x10, 0xcc, 0x3d, 0x80, 0x25, 0x12, 0x3c,
  0xb0, 0x74, 0xac, 0x3d, 0xa0, 0x2e, 0x5d, 0xbe, 0x10, 0x16, 0x5f, 0xbe,
  0xc0, 0xe7, 0xbd, 0x3c, 0x90, 0xbf, 0x74, 0x3e, 0xbc, 0xbe, 0x6f, 0x3e,
  0x00, 0x6e, 0x37, 0x3d, 0xe8, 0x30, 0x88, 0x3d, 0xa8, 0xa3, 0xe1, 0xbd,
  0xa0, 0x20, 0xd4, 0x3d, 0x48, 0x2b, 0xe4, 0x3d, 0xc8, 0xd1, 0xc3, 0xbd,
  0xe8, 0x48, 0x65, 0xbe, 0x78, 0x66, 0x6a, 0x3e, 0x80, 0x4a, 0x51, 0xbc,
  0xc4, 0xa4, 0x7b, 0xbe, 0xec, 0x45, 0x29, 0x3e, 0x08, 0x44, 0xc0, 0xbd,
  0x80, 0xbb, 0x45, 0x3d, 0x70, 0x37, 0x14, 0x3d, 0xf0, 0x07, 0xc2, 0x3d,
  0xd8, 0x34, 0x95, 0x3d, 0xc0, 0x36, 0x00, 0xbe, 0xe0, 0x3e, 0x40, 0x3e,
  0x18, 0x54, 0xc7, 0xbd, 0x4c, 0x61, 0x51, 0x3e, 0x34, 0x2e, 0x38, 0x3e,
  0xcc, 0x16, 0x66, 0xbe, 0x74, 0xba, 0x79, 0xbe, 0x30, 0xd3, 0x75, 0x3d,
  0xd0, 0x1f, 0x83, 0xbd, 0x30, 0xa5, 0xcf, 0xbd, 0x60, 0x8c, 0xf7, 0x3c,
  0x4c, 0xea, 0x4f, 0x3e, 0x1c, 0x12, 0x4b, 0xbe, 0x00, 0x98, 0x86, 0xba,
  0xd4, 0x49, 0x5b, 0xbe, 0x30, 0xb5, 0xc2, 0x3d, 0xc0, 0x96, 0x06, 0xbe,
  0x58, 0xc0, 0x89, 0x3d, 0x6c, 0xb3, 0x55, 0xbe, 0x3c, 0x2b, 0x25, 0x3e,
  0xf4, 0x9a, 0x22, 0x3e, 0xa0, 0x67, 0xb7, 0xbc, 0x54, 0x76, 0x63, 0x3e,
  0x10, 0x01, 0x34, 0xbd, 0xbc, 0x4c, 0x21, 0xbe, 0x42, 0xf7, 0xed, 0x3d,
  0x98, 0xc0, 0x85, 0x3d, 0xf6, 0xe4, 0x44, 0xbe, 0x00, 0xe5, 0x39, 0x3e,
  0x85, 0x29, 0x5f, 0xbe, 0x59, 0xad, 0xaa, 0x3d, 0x78, 0x36, 0xea, 0x3d,
  0x55, 0x95, 0x96, 0xbd, 0xba, 0x7e, 0x01, 0xbe, 0x4b, 0x71, 0x1a, 0xbe,
  0x83, 0xb7, 0x10, 0xbe, 0x42, 0x10, 0x20, 0xbe, 0x12, 0x42, 0xad, 0x3d,
  0xe6, 0x0e, 0x2b, 0x3e, 0xf8, 0xaf, 0x02, 0xbe, 0x0f, 0xcf, 0xe5, 0x3b,
  0x51, 0x73, 0x45, 0xbd, 0x00, 0x95, 0x02, 0x3b, 0x48, 0x26, 0x4d, 0x3e,
  0x2c, 0x48, 0x10, 0xbd, 0xb0, 0x76, 0x3b, 0x3e, 0x86, 0x1a, 0x09, 0x3e,
  0xd0, 0xe1, 0x2a, 0xbe, 0xf7, 0xcb, 0x5b, 0x3e, 0xa0, 0xea, 0xd9, 0xbd,
  0xbc, 0x56, 0x7b, 0xbd, 0xa3, 0xa4, 0xfb, 0x3d, 0x9b, 0x16, 0x0e, 0xbd,
  0xdf, 0xb7, 0x3f, 0x3c, 0xee, 0xb0, 0x87, 0xbb, 0x13, 0x1e, 0xc0, 0xbd,
  0xbf, 0xe4, 0x37, 0xbd, 0x2b, 0x3d, 0x85, 0xbe, 0xe0, 0x52, 0x4c, 0x3e,
  0x54, 0x3e, 0x61, 0x3c, 0x7b, 0xe5, 0x56, 0xbe, 0xa0, 0xa6, 0x1d, 0x3b,
  0xc0, 0x7b, 0x57, 0xbe, 0xb0, 0x10, 0x2c, 0x3d, 0xdf, 0x52, 0xb6, 0xbd,
  0x3a, 0xdc, 0xa8, 0xbc, 0xa7, 0x4f, 0xe3, 0x3d, 0x3c, 0x3b, 0x52, 0x3c,
  0x79, 0xcc, 0xec, 0xbd, 0x97, 0x3c, 0x05, 0x3e, 0x23, 0xb4, 0x6f, 0x3d,
  0xa5, 0x40, 0x06, 0x3e, 0x10, 0xec, 0x05, 0xbe, 0xbf, 0xe9, 0x01, 0xbd,
  0x00, 0x03, 0x95, 0x3b, 0x7e, 0xe1, 0x86, 0xbe, 0xb1, 0xaa, 0x1e, 0x3e,
  0x54, 0x3b, 0x1b, 0x3e, 0x74, 0xdb, 0x64, 0xbe, 0xd8, 0x0d, 0xbf, 0xbd,
  0x5a, 0x91, 0x79, 0xbe, 0xec, 0x4a, 0xec, 0xbd, 0xfd, 0xdb, 0x7c, 0xbe,
  0xb7, 0x4b, 0xb2, 0x3d, 0xa1, 0x42, 0xfe, 0x3d, 0x03, 0xfe, 0xc2, 0xbd,
  0x04, 0x51, 0x2c, 0xbe, 0x54, 0x4b, 0x47, 0x3d, 0xa7, 0xea, 0x59, 0x3e,
  0xfd, 0x57, 0xfc, 0x3d, 0xc8, 0xe3, 0x5c, 0xbe, 0x9d, 0xae, 0x65, 0xbe,
  0x13, 0xef, 0xee, 0xbd, 0x29, 0xa9, 0x00, 0x3e, 0x07, 0x71, 0x80, 0xbd,
  0x28, 0x6c, 0x44, 0xbe, 0x87, 0xd3, 0x0d, 0x3e, 0x62, 0x5e, 0xbd, 0xbc,
  0xf0, 0x26, 0xda, 0xbd, 0xed, 0xfb, 0x09, 0x3e, 0x2b, 0xc4, 0x29, 0x3e,
  0xbb, 0x5d, 0x24, 0xbe, 0x39, 0x46, 0x08, 0x3d, 0x55, 0x35, 0x1c, 0xbe,
  0x20, 0xd8, 0x33, 0x3e, 0xe4, 0xd4, 0x74, 0xbe, 0xe8, 0xdf, 0x37, 0xbe,
  0xd4, 0xa8, 0x5d, 0x3e, 0xa0, 0xbb, 0x2e, 0x3d, 0x99, 0x6c, 0x80, 0xbe,
  0xe7, 0xa3, 0xfb, 0xbd, 0x60, 0xef, 0x6e, 0xbe, 0x50, 0xdc, 0x26, 0xbe,
  0xea, 0xa0, 0x7f, 0xbd, 0x15, 0x55, 0xe0, 0x3d, 0x8f, 0x87, 0xac, 0x3d,
  0x23, 0x77, 0xaf, 0xbd, 0x0e, 0xaa, 0x6d, 0xbe, 0xc4, 0x66, 0xa0, 0xbd,
  0x3e, 0x82, 0x3d, 0x3c, 0x35, 0x69, 0x62, 0x3e, 0xc8, 0xcb, 0xbc, 0xbd,
  0x20, 0xb2, 0x41, 0x3e, 0x10, 0x4e, 0x5e, 0x3e, 0x79, 0x7e, 0x5b, 0xbd,
  0x32, 0x01, 0x6b, 0xbe, 0x70, 0xed, 0x05, 0xbe, 0x8c, 0xfc, 0x2b, 0xbe,
  0x14, 0xa3, 0x28, 0xbe, 0xb4, 0x4a, 0x79, 0xbd, 0x52, 0xf5, 0x48, 0xbe,
  0x4d, 0xff, 0xdb, 0xbd, 0xb4, 0xe9, 0xf5, 0xbd, 0xe6, 0xb1, 0x9b, 0xbc,
  0x2e, 0x32, 0x36, 0xbc, 0x2c, 0xfc, 0x78, 0xbe, 0x9c, 0x1d, 0x23, 0x3e,
  0xd2, 0x06, 0x80, 0xbd, 0x54, 0xf3, 0x3c, 0xbe, 0x52, 0x0a, 0x43, 0x3e,
  0xcf, 0xdf, 0xf2, 0x3d, 0x18, 0x98, 0x59, 0xbd, 0x2a, 0x58, 0x42, 0xbe,
  0xc0, 0xba, 0x0b, 0xbe, 0x3e, 0x00, 0xf7, 0x3d, 0x95, 0x8b, 0x62, 0x3e,
  0xa3, 0xb6, 0x48, 0x3e, 0x98, 0xa0, 0x20, 0xbe, 0xa5, 0x95, 0x9c, 0x3c,
  0xae, 0x87, 0x34, 0xbe, 0x2f, 0xee, 0x65, 0xbe, 0x91, 0xdb, 0x90, 0xbd,
  0xaf, 0x66, 0x25, 0x3e, 0xb9, 0x29, 0xbc, 0x3e, 0x74, 0x05, 0x14, 0x3e,
  0x31, 0x58, 0x39, 0x3f, 0xfc, 0xaf, 0x6b, 0x3e, 0x77, 0x05, 0x6b, 0x3d,
  0x68, 0xfe, 0x4c, 0xbe, 0x10, 0xe0, 0xcc, 0x3d, 0x15, 0x97, 0x93, 0x3f,
  0x6d, 0x01, 0xfe, 0x3d, 0xaa, 0xd3, 0x90, 0x3e, 0x6a, 0xe0, 0x6b, 0xbd,
  0xee, 0x97, 0xa9, 0xbd, 0x84, 0xe5, 0xcd, 0x3e, 0x9d, 0x1e, 0xce, 0x3d,
  0x76, 0x5e, 0x4a, 0x3f, 0x62, 0xf0, 0x3d, 0x3f, 0x21, 0xee, 0xe4, 0x3e,
  0x6c, 0x41, 0x2f, 0xbe, 0xb8, 0xfe, 0x92, 0xbe, 0x67, 0x09, 0x0c, 0x3f,
  0xb2, 0x29, 0xf6, 0xbd, 0x3e, 0x6e, 0xcf, 0x3d, 0x48, 0x32, 0xf7, 0x3d,
  0x30, 0xd2, 0xcb, 0x3e, 0x7a, 0xd8, 0xa5, 0xbd, 0xaf, 0xac, 0x3d, 0x3d,
  0x9d, 0x5b, 0x11, 0x3d, 0xf3, 0x97, 0x3a, 0x3e, 0xf4, 0x62, 0x05, 0x3f,
  0x19, 0xb9, 0x80, 0x3e, 0x6c, 0x71, 0x20, 0x3f, 0xce, 0x38, 0x2b, 0x3f,
  0x8a, 0xfd, 0xa1, 0x3e, 0x38, 0xa6, 0x7a, 0xbe, 0x94, 0x5a, 0x6b, 0xbe,
  0x4d, 0x22, 0x1b, 0x3f, 0xda, 0x80, 0x7b, 0xbe, 0x17, 0xe3, 0x8e, 0x3d,
  0xb4, 0x2d, 0x24, 0xbe, 0x28, 0xa2, 0x29, 0x3f, 0x8d, 0x47, 0x8e, 0xbd,
  0x60, 0x8a, 0x41, 0xbe, 0x90, 0x32, 0x68, 0x3d, 0x57, 0x86, 0x53, 0xbc,
  0xaf, 0xe8, 0x2d, 0x3f, 0x36, 0xec, 0xb2, 0x3e, 0x66, 0xc9, 0x09, 0x3f,
  0x01, 0x88, 0xc9, 0x3e, 0x8a, 0xbb, 0xfc, 0x3e, 0x88, 0x51, 0x3b, 0xbe,
  0xba, 0x20, 0x01, 0x3e, 0x4e, 0xdf, 0xc6, 0x3e, 0xf1, 0x34, 0x69, 0xbd,
  0xcd, 0x5d, 0x18, 0xbd, 0xa0, 0x39, 0xed, 0xbc, 0x53, 0x1c, 0x3d, 0x3f,
  0xb3, 0x2d, 0x06, 0x3e, 0x94, 0x8d, 0x54, 0xbd, 0x5c, 0x64, 0x2e, 0xbe,
  0x53, 0x53, 0x69, 0xbe, 0xa2, 0x4e, 0xf0, 0x3e, 0xe4, 0x40, 0xc3, 0xba,
  0xe3, 0x0d, 0x01, 0x3f, 0xc0, 0x8c, 0x62, 0x3f, 0x2f, 0x4a, 0xe6, 0xbe,
  0x88, 0x20, 0x43, 0xbe, 0x9a, 0x0d, 0x6a, 0xbf, 0x99, 0x5b, 0x00, 0xbe,
  0x4f, 0x67, 0x0b, 0xbf, 0x75, 0x0d, 0x9d, 0x3d, 0x3c, 0x3c, 0x3a, 0x3e,
  0x6e, 0xee, 0xd0, 0xbf, 0xb7, 0x43, 0xb9, 0x3d, 0x57, 0xe9, 0xb0, 0xbd,
  0x8c, 0x30, 0x05, 0x3e, 0xb8, 0x49, 0x60, 0xbe, 0xa6, 0x3a, 0xad, 0xbe,
  0xeb, 0x6e, 0x0a, 0xbf, 0x17, 0x58, 0x8a, 0xbf, 0x14, 0x73, 0x2f, 0xbf,
  0x4a, 0xdb, 0xe2, 0xbe, 0xc0, 0xf3, 0x46, 0x3d, 0x39, 0x14, 0x52, 0x3e,
  0xfb, 0xd1, 0xfe, 0xbe, 0x03, 0x02, 0xdc, 0xbe, 0xab, 0x02, 0x28, 0x3e,
  0x30, 0x81, 0x06, 0xbe, 0x98, 0x45, 0x27, 0xbf, 0xbf, 0xc8, 0x3b, 0x3e,
  0x1c, 0xcd, 0x64, 0x3e, 0x77, 0xf8, 0x00, 0x3e, 0xc1, 0x20, 0x9f, 0xbe,
  0x1d, 0x49, 0xe8, 0xbe, 0x7c, 0x2d, 0x05, 0xbf, 0x9b, 0xc5, 0xc1, 0xbe,
  0x7a, 0x88, 0xc4, 0xbe, 0xb7, 0x58, 0x69, 0xbf, 0xf0, 0xae, 0xc7, 0xbd,
  0x76, 0x49, 0xb4, 0xbd, 0x21, 0xb1, 0x24, 0xbf, 0xd9, 0x4e, 0x92, 0xbe,
  0x1e, 0x93, 0x0c, 0xbe, 0xe4, 0xaa, 0x70, 0xbe, 0xe0, 0x8b, 0x9c, 0xbf,
  0xd0, 0xf7, 0x37, 0xbe, 0x80, 0xb6, 0x38, 0x3e, 0x85, 0x9a, 0x4f, 0xbe,
  0x0e, 0xee, 0x14, 0xbf, 0xaa, 0xf2, 0x42, 0xbf, 0x30, 0x8b, 0x2d, 0xbd,
  0xb3, 0x07, 0x53, 0xbf, 0xc6, 0x63, 0x80, 0xbf, 0x3e, 0x25, 0x44, 0xbf,
  0xa8, 0xd1, 0x40, 0x3e, 0x3d, 0x27, 0x85, 0xbe, 0x10, 0xeb, 0x37, 0xbf,
  0xe4, 0x2e, 0x3f, 0x3d, 0x3b, 0xaf, 0x6e, 0x3e, 0x4c, 0x60, 0x6e, 0x3e,
  0x67, 0x25, 0xaf, 0xbf, 0x53, 0x8d, 0x5c, 0x3e, 0x26, 0xcc, 0x49, 0x3e,
  0x97, 0x0c, 0xce, 0x3e, 0x51, 0x31, 0x19, 0x3d, 0x09, 0x9e, 0x36, 0xbf,
  0xcb, 0x8d, 0x1b, 0xbf, 0xfc, 0x4b, 0xf0, 0xbe, 0x9b, 0x9b, 0x35, 0xbf,
  0x52, 0xbf, 0xe6, 0x3e, 0x48, 0x9c, 0x99, 0xbd, 0x08, 0x7a, 0x0a, 0x3f,
  0x79, 0xe0, 0x24, 0x3e, 0xfd, 0x33, 0x1b, 0x3d, 0x9f, 0x1d, 0xc3, 0xbc,
  0x00, 0x92, 0x16, 0xbe, 0x57, 0x49, 0x9f, 0x3f, 0x1a, 0x3a, 0x4a, 0x3e,
  0xef, 0x46, 0xc5, 0x3c, 0x86, 0xa2, 0xbd, 0xbe, 0x8d, 0x89, 0x85, 0x3e,
  0x52, 0x30, 0x01, 0x3f, 0xd0, 0x96, 0xd1, 0x3d, 0x74, 0x9e, 0x52, 0x3f,
  0xa9, 0x74, 0x6c, 0x3f, 0x73, 0xbb, 0x57, 0x3e, 0xf8, 0xef, 0x95, 0xbd,
  0xe6, 0x87, 0xb8, 0x3d, 0x0a, 0x7a, 0x8e, 0x3e, 0x38, 0x16, 0x36, 0xbc,
  0x87, 0xc0, 0x2e, 0x3e, 0x88, 0x07, 0x3a, 0xbe, 0xb6, 0xa6, 0x27, 0x3f,
  0x61, 0xc2, 0x12, 0x3d, 0xe4, 0x35, 0xee, 0xbd, 0x9f, 0x72, 0xbd, 0xbe,
  0x69, 0xfb, 0x95, 0x3e, 0xab, 0x94, 0xa3, 0x3e, 0x5f, 0x00, 0xe2, 0x3e,
  0x17, 0xf3, 0x9d, 0x3e, 0xcd, 0x68, 0xe1, 0x3e, 0x44, 0xec, 0x72, 0x3e,
  0xa8, 0xbe, 0xcb, 0xbd, 0xb2, 0xe7, 0xc1, 0xbd, 0x30, 0xe7, 0x09, 0x3f,
  0x34, 0x5a, 0x4e, 0xbe, 0x8a, 0xcd, 0xf8, 0x3d, 0xe0, 0x09, 0x7d, 0x3e,
  0xab, 0x30, 0x25, 0x3f, 0xd1, 0xf8, 0xc2, 0x3d, 0xcd, 0x40, 0xae, 0x3d,
  0x9c, 0x55, 0xe4, 0x3c, 0xa6, 0x04, 0x8d, 0x3d, 0xb1, 0x5e, 0x07, 0x3f,
  0x11, 0x7c, 0x2a, 0x3e, 0xbc, 0x5f, 0xae, 0x3e, 0x87, 0xb2, 0x4c, 0x3f,
  0x5e, 0xd1, 0x44, 0x3f, 0x80, 0x7c, 0x51, 0xbe, 0xf6, 0xa9, 0x80, 0x3d,
  0x0f, 0x6f, 0xce, 0x3e, 0x97, 0xdd, 0x85, 0xbe, 0x51, 0x85, 0x9c, 0xbe,
  0x00, 0x78, 0x6c, 0xbe, 0xb5, 0xc9, 0x5e, 0x3f, 0xe5, 0xd0, 0xf9, 0x3d,
  0xf9, 0x3f, 0xa7, 0xbd, 0x1a, 0xeb, 0x8a, 0xbe, 0x28, 0xe0, 0x23, 0x3e,
  0xac, 0x38, 0x13, 0x3f, 0x8a, 0xb1, 0x0e, 0x3e, 0x6f, 0xca, 0xa7, 0x3e,
  0x5b, 0x44, 0x0a, 0x3f, 0x80, 0xbd, 0x27, 0xbd, 0x10, 0x8a, 0x05, 0xbe,
  0xc0, 0xc6, 0x0c, 0xbd, 0xeb, 0xea, 0x85, 0xbc, 0x77, 0xb8, 0x46, 0x3e,
  0x64, 0x51, 0x0e, 0xbd, 0x38, 0x16, 0x0b, 0xbe, 0xc3, 0x05, 0xcd, 0xbd,
  0xbf, 0x99, 0x6a, 0xbe, 0x85, 0x1b, 0x65, 0x3c, 0xb0, 0x3f, 0x4a, 0x3e,
  0xe7, 0x78, 0x34, 0xbe, 0xf7, 0xd9, 0x5a, 0x3e, 0x9f, 0x1d, 0x7c, 0xbd,
  0xe8, 0x0f, 0x42, 0x3e, 0xcb, 0x6b, 0xab, 0x3d, 0xf0, 0x51, 0x8f, 0x3c,
  0x20, 0x68, 0x49, 0xbe, 0x3c, 0x3b, 0x49, 0x3e, 0x72, 0xce, 0x22, 0xbe,
  0xed, 0x32, 0x01, 0x3d, 0xb0, 0xa9, 0x9d, 0xbd, 0x50, 0xd3, 0x14, 0xbe,
  0xba, 0x45, 0x11, 0xbe, 0x01, 0x66, 0x27, 0xbe, 0x56, 0x16, 0x36, 0xbe,
  0xc1, 0x1e, 0xbf, 0x3d, 0x34, 0x06, 0x33, 0x3d, 0xa4, 0xe0, 0x6a, 0xbe,
  0x18, 0xdc, 0xd0, 0x3d, 0xf1, 0x4a, 0x74, 0x3e, 0x69, 0x94, 0x2d, 0x3d,
  0x9c, 0xbb, 0xbd, 0x3d, 0xe0, 0x10, 0xc2, 0xbc, 0x2f, 0x30, 0x72, 0xbe,
  0x96, 0x3f, 0xd0, 0xbd, 0x59, 0x21, 0x16, 0xbe, 0xea, 0x1b, 0xc7, 0xbd,
  0xd0, 0x01, 0x14, 0xbe, 0x43, 0xa8, 0xca, 0x3b, 0x5e, 0x21, 0x24, 0x3d,
  0x90, 0x39, 0x02, 0x3e, 0xf5, 0xcf, 0x09, 0x3c, 0x38, 0x6c, 0x19, 0x3e,
  0x34, 0x9e, 0x40, 0xbe, 0x2d, 0x2a, 0xfa, 0xbd, 0xf5, 0x58, 0x65, 0xbe,
  0xd7, 0xc7, 0x6d, 0x3e, 0x0c, 0xfe, 0x52, 0xbe, 0x94, 0xac, 0x37, 0xbe,
  0x2e, 0x03, 0x27, 0x3e, 0x00, 0x1f, 0x91, 0xbb, 0x51, 0xad, 0xf0, 0x3d,
  0x9b, 0xed, 0x10, 0xbe, 0x08, 0x45, 0x2b, 0x3e, 0x90, 0xee, 0x7e, 0xbe,
  0xef, 0x94, 0x74, 0xbe, 0x46, 0xea, 0xd2, 0xbd, 0x48, 0xaf, 0xbe, 0xbd,
  0x1a, 0xd5, 0xf5, 0xbd, 0x7c, 0x04, 0x3b, 0xbe, 0x2d, 0x06, 0xa3, 0x3d,
  0xab, 0x2e, 0x6a, 0xbd, 0x04, 0xf4, 0x5b, 0xbd, 0xf4, 0xec, 0x51, 0xbf,
  0xf0, 0x96, 0xa2, 0xbd, 0x92, 0xed, 0xc3, 0xbe, 0x53, 0x53, 0x30, 0xbf,
  0x2f, 0x86, 0x23, 0xbf, 0xef, 0xb0, 0xae, 0x3e, 0x14, 0xdf, 0x1f, 0x3e,
  0xb4, 0x42, 0x9c, 0xbf, 0x16, 0x48, 0x4b, 0x3e, 0x29, 0xfb, 0x16, 0x3d,
  0x77, 0x7c, 0xe6, 0xbd, 0x85, 0xc8, 0x55, 0xbf, 0xe4, 0x3c, 0x47, 0xbe,
  0xe9, 0x5c, 0xdb, 0xbe, 0x6a, 0x8f, 0x96, 0xbf, 0xf7, 0xe0, 0x21, 0xbf,
  0x2b, 0x2f, 0x83, 0xbf, 0x90, 0x30, 0x64, 0xbd, 0x97, 0x2b, 0x4f, 0xbe,
  0xe0, 0xe6, 0x7f, 0xbf, 0x32, 0xc8, 0x64, 0xbf, 0x1f, 0x6a, 0x8e, 0xbd,
  0x58, 0x80, 0xd5, 0x3d, 0xa2, 0x01, 0x14, 0xbf, 0xb9, 0xad, 0xa5, 0x3e,
  0x57, 0x50, 0xca, 0xbd, 0x83, 0x88, 0xd5, 0xbd, 0xbb, 0xa0, 0x3d, 0xbf,
  0x4c, 0x85, 0xb7, 0xbe, 0xc5, 0x03, 0xf6, 0xbe, 0xca, 0xbf, 0x5d, 0xbf,
  0x9f, 0x5f, 0x02, 0xbf, 0x29, 0xca, 0x82, 0xbf, 0x90, 0x13, 0xf7, 0x3d,
  0xa2, 0xd3, 0x29, 0xbe, 0xa7, 0x36, 0x5d, 0xbf, 0x10, 0x74, 0x16, 0xbf,
  0x41, 0x81, 0x06, 0x3d, 0x28, 0xce, 0x48, 0xbe, 0x2d, 0xb2, 0x84, 0xbf,
  0x3a, 0xc0, 0x84, 0x3e, 0x6c, 0xe4, 0x5d, 0x3e, 0xf9, 0xbf, 0xa6, 0xbe,
  0xcd, 0xc8, 0x6c, 0xbf, 0x29, 0x76, 0x10, 0xbc, 0xc6, 0xec, 0xc6, 0xbe,
  0x6a, 0x49, 0x65, 0xbf, 0x90, 0xfb, 0xd0, 0xbe, 0xbb, 0xe0, 0x67, 0xbf,
  0x10, 0x7f, 0xdf, 0xbd, 0x56, 0x38, 0xec, 0xbd, 0x49, 0x29, 0x75, 0xbf,
  0x62, 0xbf, 0x56, 0xbf, 0x94, 0x79, 0x28, 0x3c, 0x80, 0xfb, 0x72, 0x3e,
  0x62, 0x29, 0x4f, 0xbf, 0x60, 0x09, 0x4d, 0xbd, 0x92, 0x68, 0xaa, 0x3e,
  0xa1, 0x49, 0x92, 0xbd, 0x2a, 0xab, 0x58, 0xbf, 0xa1, 0xc9, 0x19, 0xbf,
  0xde, 0x43, 0xe8, 0xbe, 0x5a, 0x1e, 0x3c, 0xbf, 0x3c, 0x7f, 0xa8, 0xbe,
  0x09, 0x60, 0xfb, 0x3d, 0x0c, 0xca, 0x40, 0x3e, 0x74, 0x08, 0x6c, 0x3d,
  0x07, 0xda, 0x87, 0xbe, 0x9a, 0x44, 0x2b, 0x3e, 0x5d, 0xba, 0x6e, 0x3d,
  0x70, 0xfb, 0xae, 0xbd, 0xc9, 0xbb, 0xd7, 0xbd, 0xa0, 0xa1, 0xd5, 0x3d,
  0xd8, 0xd1, 0x3b, 0x3d, 0x36, 0xfd, 0x48, 0xbe, 0xb6, 0xef, 0x00, 0x3e,
  0x3e, 0x88, 0x64, 0xbe, 0xd1, 0xf1, 0x66, 0x3d, 0x0d, 0xb4, 0xa3, 0x3c,
  0xe5, 0xa0, 0x56, 0xbe, 0xf4, 0xa7, 0xfa, 0x3d, 0x20, 0xc4, 0xfb, 0xbc,
  0x73, 0x36, 0x73, 0xbe, 0xfe, 0x71, 0x9f, 0x3d, 0x83, 0xdc, 0x0d, 0x3e,
  0xd7, 0xeb, 0x26, 0xbe, 0xcc, 0x06, 0x41, 0x3e, 0x4d, 0x21, 0xa7, 0xbb,
  0x8c, 0x83, 0x28, 0xbd, 0x1a, 0x62, 0x22, 0xbe, 0x7c, 0xe1, 0x8d, 0x3d,
  0x39, 0xd2, 0xf6, 0x3d, 0x72, 0x4f, 0x91, 0x3d, 0x2e, 0x9b, 0x15, 0xbe,
  0xf2, 0xce, 0x4f, 0x3e, 0x46, 0x2b, 0x09, 0xbe, 0x76, 0xa1, 0x1f, 0xbe,
  0xe8, 0xca, 0x58, 0xbe, 0xcf, 0xf6, 0xee, 0xbd, 0xdd, 0xde, 0x77, 0xbe,
  0x6a, 0x63, 0x40, 0x3d, 0x6a, 0x2b, 0x1b, 0xbe, 0x08, 0xa9, 0xbc, 0x3d,
  0x79, 0x09, 0x0c, 0xbe, 0x48, 0x9b, 0x11, 0x3e, 0xe8, 0xb8, 0xb1, 0xbd,
  0xa1, 0xf6, 0xdc, 0xbd, 0xa9, 0x94, 0xba, 0x3d, 0xdc, 0xd6, 0x18, 0xbd,
  0xaa, 0xc9, 0x02, 0xbe, 0x18, 0x4f, 0xb5, 0x3d, 0x88, 0xc1, 0x4e, 0xbe,
  0xda, 0x5c, 0x4d, 0x3d, 0xc0, 0xc9, 0x09, 0x3d, 0x23, 0x0d, 0x6a, 0xbe,
  0x57, 0x46, 0x3d, 0x3e, 0x24, 0x6d, 0x82, 0xbe, 0x57, 0xdc, 0x00, 0xbe,
  0x48, 0x27, 0x25, 0xbe, 0xb4, 0x2c, 0x6f, 0xbe, 0x59, 0xf9, 0xa9, 0x3c,
  0x3d, 0x4c, 0x5d, 0xbe, 0xd0, 0x3a, 0xc3, 0x3d, 0x15, 0x08, 0x10, 0x3e,
  0xe9, 0x04, 0x30, 0xbe, 0xbc, 0xed, 0xd8, 0x3d, 0x66, 0x14, 0x3b, 0xbe,
  0xc6, 0x38, 0xf0, 0xbd, 0xce, 0x19, 0x0b, 0x3f, 0x24, 0x26, 0x20, 0x3e,
  0x58, 0xf5, 0x04, 0x3f, 0x4b, 0x76, 0x00, 0x3e, 0x1e, 0x4d, 0xdd, 0xbc,
  0x29, 0xa9, 0x09, 0x3e, 0x9c, 0xe4, 0x74, 0x3e, 0x80, 0x4f, 0x89, 0x3f,
  0x3b, 0x00, 0x32, 0xbd, 0x1c, 0x63, 0x2d, 0x3e, 0xbb, 0xfd, 0x12, 0xbf,
  0xff, 0xd4, 0x47, 0x3e, 0xaf, 0x67, 0x3c, 0x3f, 0x58, 0x51, 0xc8, 0x3e,
  0xf7, 0x99, 0xdf, 0x3e, 0xda, 0xdc, 0x8c, 0x3f, 0x7d, 0x9a, 0xb2, 0x3e,
  0x40, 0x2a, 0x8c, 0xbd, 0x70, 0x4f, 0xa6, 0x3c, 0x8b, 0xc6, 0x13, 0x3f,
  0x60, 0x5d, 0x36, 0xbb, 0x90, 0xda, 0x71, 0x3e, 0x70, 0xb7, 0xa0, 0x3d,
  0xce, 0xee, 0x1a, 0x3f, 0x0a, 0x1e, 0x68, 0x3d, 0xf2, 0xf6, 0x45, 0xbe,
  0xbc, 0x51, 0x70, 0x3a, 0xf9, 0xad, 0x4d, 0x3d, 0x23, 0x11, 0xcb, 0x3e,
  0x7a, 0x8d, 0x81, 0x3e, 0x9b, 0x45, 0x96, 0x3e, 0x7c, 0xc7, 0x3e, 0x3f,
  0x01, 0xd5, 0x05, 0x3f, 0xd0, 0x25, 0x2f, 0x3e, 0xd9, 0xc5, 0x12, 0x3d,
  0x38, 0x1c, 0x75, 0x3e, 0x13, 0xd2, 0x09, 0x3e, 0x3d, 0x5e, 0x96, 0xbd,
  0x80, 0xfc, 0x79, 0x3d, 0xd0, 0xa9, 0x3c, 0x3f, 0xed, 0x3d, 0xe5, 0xbd,
  0x64, 0xb6, 0x56, 0xbe, 0xa5, 0x72, 0x1a, 0xbe, 0xf1, 0xc6, 0xd0, 0xbd,
  0xe0, 0x44, 0xaa, 0x3e, 0x01, 0x05, 0x2f, 0x3e, 0x4b, 0x7e, 0x9d, 0x3e,
  0x20, 0xb7, 0x34, 0x3f, 0x6a, 0x49, 0x03, 0x3f, 0x18, 0x7c, 0xbe, 0x3d,
  0x61, 0xea, 0xae, 0xbd, 0xa0, 0xc5, 0x18, 0x3f, 0xcd, 0x43, 0x72, 0xbe,
  0x26, 0xc6, 0x4d, 0xbe, 0x24, 0xba, 0x5e, 0xbe, 0x3b, 0x23, 0x3c, 0x3f,
  0x85, 0xe1, 0x07, 0x3e, 0x28, 0x1e, 0x36, 0x3e, 0x08, 0x57, 0x67, 0xbe,
  0xcc, 0x37, 0x8d, 0xbe, 0xb6, 0xc4, 0x8e, 0x3e, 0xc9, 0x8e, 0xdd, 0x3e,
  0x0a, 0x78, 0x93, 0x3e, 0x91, 0x4d, 0x41, 0x3f, 0x1f, 0x41, 0x88, 0xbf,
  0x20, 0x34, 0x54, 0xbe, 0xfc, 0xc1, 0x44, 0xbf, 0x56, 0x32, 0x62, 0xbf,
  0x6c, 0x34, 0x86, 0xbf, 0xe2, 0x7d, 0x21, 0x3e, 0xa0, 0x1c, 0x38, 0xbd,
  0x0f, 0xd4, 0x8a, 0xbf, 0xe4, 0x76, 0x1f, 0x3e, 0x7f, 0x83, 0x4d, 0xbd,
  0x9d, 0x2e, 0xb8, 0xbe, 0x56, 0x72, 0x4e, 0xbf, 0x0d, 0xa1, 0x2b, 0x3d,
  0x5a, 0x6f, 0x35, 0xbf, 0x43, 0x3d, 0x93, 0xbf, 0xec, 0x1d, 0x35, 0xbf,
  0x93, 0x02, 0x91, 0xbf, 0x20, 0x53, 0x4a, 0x3d, 0x00, 0xc9, 0x5c, 0xbe,
  0x2b, 0x5a, 0x90, 0xbf, 0x54, 0xb7, 0x59, 0xbf, 0x9e, 0xda, 0x47, 0x3e,
  0x54, 0x32, 0x36, 0x3e, 0x93, 0x2b, 0x3c, 0xbf, 0x8e, 0xfd, 0xc3, 0xbc,
  0x75, 0xf6, 0x6a, 0x3e, 0x4a, 0x0f, 0x02, 0xbf, 0xc7, 0x5c, 0x6a, 0xbf,
  0x9a, 0xf9, 0x87, 0xbe, 0x50, 0x17, 0xfc, 0xbe, 0xc2, 0xa7, 0x00, 0xbf,
  0x82, 0x44, 0xc0, 0xbe, 0x52, 0xf5, 0x8e, 0xbf, 0x80, 0xdd, 0x40, 0x3d,
  0xcd, 0x38, 0x20, 0xbe, 0x3a, 0xb0, 0x94, 0xbf, 0x33, 0x69, 0x77, 0xbf,
  0xcd, 0x19, 0x83, 0x3e, 0xd4, 0xb6, 0x32, 0xbe, 0xfa, 0xcd, 0x8c, 0xbf,
  0x35, 0x2f, 0x62, 0x3e, 0x1c, 0x15, 0x11, 0x3e, 0x70, 0xf3, 0xd5, 0xbc,
  0x67, 0xa7, 0x8a, 0xbf, 0x6c, 0x14, 0x8a, 0xbe, 0xd0, 0x0c, 0xe0, 0xbe,
  0x3e, 0xb2, 0x75, 0xbf, 0x16, 0xcd, 0x21, 0xbf, 0xbb, 0x23, 0x99, 0xbf,
  0x78, 0xf2, 0xa8, 0x3d, 0xba, 0x0a, 0xa7, 0xbd, 0x34, 0x87, 0x98, 0xbf,
  0xec, 0x4e, 0x1e, 0xbf, 0x34, 0xaf, 0xf7, 0xbd, 0x68, 0x47, 0xcc, 0xbd,
  0x84, 0x14, 0x8a, 0xbf, 0x76, 0xfd, 0xb1, 0x3e, 0x6b, 0xd0, 0x78, 0x3e,
  0x2c, 0x30, 0xef, 0xbe, 0xd4, 0xeb, 0xf6, 0xbe, 0x98, 0x91, 0xb4, 0xbe,
  0xfd, 0x6a, 0x31, 0xbf, 0xaf, 0xb2, 0x80, 0xbf, 0x4d, 0xa6, 0xa0, 0xbe,
  0xdd, 0xaa, 0xf7, 0x3e, 0x00, 0xe8, 0xeb, 0x3a, 0x4a, 0xfb, 0x30, 0x3f,
  0xa2, 0x3e, 0xbe, 0x3e, 0xd3, 0x73, 0xd4, 0x3d, 0x11, 0x89, 0x08, 0xbe,
  0xf4, 0x9b, 0x31, 0xbe, 0x6a, 0xa9, 0xa7, 0x3f, 0x0f, 0x0e, 0xa1, 0x3e,
  0x03, 0x96, 0x81, 0x3e, 0x59, 0x84, 0x01, 0xbf, 0x3a, 0xa8, 0xab, 0x3e,
  0xed, 0x52, 0xe5, 0x3e, 0x2a, 0x65, 0x9b, 0x3e, 0x7c, 0x1e, 0x81, 0x3f,
  0x4a, 0xca, 0xaa, 0x3f, 0x1d, 0x25, 0xc8, 0x3e, 0x84, 0x1c, 0x49, 0x3e,
  0x76, 0x77, 0xf0, 0x3d, 0x4f, 0xc0, 0x96, 0x3e, 0x9d, 0x4a, 0x74, 0x3d,
  0xdc, 0x98, 0x39, 0x3e, 0x60, 0x27, 0xab, 0x3c, 0x5e, 0x53, 0x1c, 0x3f,
  0x08, 0x91, 0xab, 0xbd, 0x9e, 0xb7, 0x03, 0xbe, 0x03, 0x0c, 0xd4, 0x3c,
  0x0f, 0x4e, 0xd5, 0x3e, 0x1e, 0x2f, 0x1f, 0x3f, 0x29, 0x13, 0x4f, 0x3e,
  0x39, 0xd7, 0x22, 0x3f, 0x1d, 0x52, 0xf4, 0x3e, 0x4b, 0x28, 0x33, 0x3f,
  0x00, 0x25, 0xb0, 0xbd, 0x24, 0xc4, 0xa5, 0x3d, 0x4b, 0xa5, 0x0f, 0x3f,
  0x79, 0x72, 0x81, 0x3d, 0x72, 0xcd, 0x2b, 0x3e, 0x08, 0xbc, 0xee, 0x3d,
  0x8c, 0x4e, 0x90, 0x3f, 0x5d, 0x7e, 0x4e, 0xbe, 0xa1, 0x00, 0x01, 0x3e,
  0x7c, 0x72, 0xbb, 0xbd, 0x5b, 0x90, 0x79, 0x3e, 0x3e, 0x47, 0xd2, 0x3e,
  0x98, 0xe1, 0xe2, 0x3e, 0x76, 0xe8, 0x2e, 0x3f, 0x7a, 0xdd, 0x69, 0x3f,
  0x77, 0x41, 0x43, 0x3f, 0x78, 0xe7, 0x4c, 0x3e, 0x8d, 0xa2, 0x76, 0xbe,
  0xcf, 0x62, 0xa0, 0x3e, 0x70, 0x77, 0xca, 0xbc, 0xa6, 0x1c, 0x8c, 0xbe,
  0xc8, 0x99, 0xd5, 0xbd, 0x55, 0x35, 0x50, 0x3f, 0x42, 0xf8, 0x6d, 0xbe,
  0x7f, 0xf8, 0xeb, 0x3c, 0x18, 0x2c, 0xa8, 0xbe, 0x1e, 0x37, 0x57, 0xbe,
  0x9a, 0xff, 0x58, 0x3f, 0xf2, 0x9d, 0x7d, 0x3e, 0x26, 0xce, 0x9f, 0x3e,
  0xf0, 0x5e, 0x71, 0x3f, 0xfd, 0xfe, 0x47, 0xbf, 0x30, 0x4a, 0x8e, 0x3d,
  0x4c, 0x43, 0x72, 0xbf, 0x0d, 0xe8, 0x1b, 0xbf, 0x6c, 0x61, 0x15, 0xbf,
  0xfb, 0x86, 0x81, 0x3d, 0x08, 0x72, 0x11, 0xbe, 0xd4, 0x22, 0x96, 0xbf,
  0x13, 0xd3, 0x18, 0x3e, 0x13, 0xd0, 0x60, 0xbe, 0x26, 0x00, 0x5c, 0x3d,
  0xfd, 0x7e, 0x60, 0xbf, 0x3e, 0x93, 0xd0, 0xbe, 0x70, 0x33, 0x4f, 0xbf,
  0xf4, 0xa1, 0x92, 0xbf, 0x87, 0x88, 0x28, 0xbf, 0x11, 0xa5, 0x7f, 0xbf,
  0x88, 0x16, 0x08, 0x3e, 0x9e, 0x41, 0x89, 0xbe, 0xd1, 0x9f, 0x11, 0xbf,
  0x95, 0xd6, 0xc8, 0xbe, 0xca, 0x44, 0x62, 0xbd, 0x94, 0xc9, 0x78, 0x3e,
  0x5f, 0x99, 0x20, 0xbf, 0xda, 0xfa, 0x82, 0x3d, 0x65, 0x27, 0x93, 0x3e,
  0x74, 0x1f, 0x07, 0x3e, 0x05, 0xad, 0x1c, 0xbf, 0x15, 0xdf, 0x10, 0xbf,
  0x01, 0x6d, 0x81, 0xbe, 0xb0, 0xa4, 0x1a, 0xbf, 0xba, 0x50, 0xe8, 0xbe,
  0xc0, 0x0a, 0x3c, 0xbf, 0x08, 0xb1, 0x5a, 0xbe, 0x71, 0x33, 0x48, 0xbe,
  0xbc, 0x3a, 0x29, 0xbf, 0x8d, 0x81, 0xc7, 0xbe, 0xb6, 0x2f, 0x84, 0x3e,
  0x94, 0xf3, 0x17, 0xbe, 0x94, 0x5d, 0x85, 0xbf, 0x2a, 0xaa, 0xf1, 0xbd,
  0x63, 0xc5, 0x9c, 0x3e, 0x0d, 0x1b, 0x05, 0x3e, 0x8f, 0x74, 0x2b, 0xbf,
  0x82, 0x66, 0xd8, 0xbe, 0x50, 0x99, 0xbb, 0x3c, 0xaa, 0xe8, 0x00, 0xbf,
  0xe5, 0x19, 0x2f, 0xbf, 0xdb, 0x91, 0x75, 0xbf, 0x50, 0x0a, 0x89, 0xbd,
  0xba, 0xd3, 0x40, 0x3d, 0x1e, 0xc5, 0x40, 0xbf, 0x37, 0xf6, 0x01, 0xbf,
  0x3f, 0x1e, 0xa3, 0x3e, 0xa8, 0xd7, 0x3d, 0xbe, 0xd0, 0x34, 0x54, 0xbf,
  0xf4, 0x6f, 0x05, 0xbe, 0x47, 0xd0, 0x9f, 0x3e, 0xa5, 0x72, 0x35, 0xbe,
  0x93, 0xb9, 0xea, 0xbe, 0x86, 0xba, 0xd4, 0xbe, 0xe3, 0xc2, 0xab, 0xbe,
  0xef, 0x30, 0xaa, 0xbe, 0xe1, 0x8d, 0x33, 0xbe, 0x64, 0x93, 0x2b, 0x3e,
  0x9c, 0xfe, 0x3d, 0xbe, 0x40, 0x52, 0x4e, 0xbc, 0xb0, 0x3f, 0x89, 0xbd,
  0x80, 0xec, 0x6b, 0xbd, 0xe4, 0x73, 0x0f, 0xbe, 0xf8, 0xd4, 0x7b, 0x3e,
  0x44, 0xf8, 0x4d, 0xbe, 0xe0, 0x5d, 0xc5, 0x3d, 0x78, 0xfb, 0xe8, 0xbd,
  0xec, 0x0f, 0x7f, 0x3e, 0xa4, 0xd2, 0x32, 0xbe, 0xa0, 0xa1, 0x15, 0xbd,
  0x44, 0x6a, 0x4c, 0x3e, 0xc0, 0xde, 0x55, 0x3d, 0x3c, 0x68, 0x62, 0xbe,
  0xf0, 0x26, 0x3b, 0xbe, 0x40, 0x4e, 0x13, 0xbe, 0x6c, 0xf5, 0x09, 0x3e,
  0x80, 0x1d, 0x28, 0x3c, 0x60, 0x96, 0x07, 0x3d, 0x68, 0x1a, 0xfd, 0xbd,
  0xc0, 0x43, 0x41, 0x3c, 0xb0, 0x14, 0x71, 0x3e, 0x80, 0x8a, 0xf0, 0xbb,
  0x30, 0xad, 0x60, 0xbd, 0x98, 0x28, 0xdb, 0x3d, 0x00, 0x12, 0x37, 0x3c,
  0x40, 0x63, 0x46, 0xbd, 0x80, 0x4b, 0xa1, 0xbc, 0x20, 0x53, 0xe4, 0xbc,
  0x80, 0x77, 0x98, 0x3b, 0xe8, 0xed, 0x5b, 0x3e, 0x38, 0x87, 0x81, 0xbd,
  0x64, 0x37, 0x55, 0xbe, 0xfc, 0x6f, 0x6c, 0xbe, 0x10, 0x16, 0x56, 0x3e,
  0x14, 0xf9, 0x06, 0x3e, 0x50, 0x8e, 0x45, 0xbd, 0x1c, 0xa7, 0x38, 0xbe,
  0xb8, 0xca, 0x48, 0xbe, 0x20, 0x98, 0xfd, 0x3c, 0x40, 0x60, 0xf6, 0x3d,
  0xe0, 0x1c, 0x43, 0xbe, 0x80, 0xfb, 0x16, 0x3e, 0x68, 0x2d, 0xc2, 0xbd,
  0x08, 0xe6, 0x62, 0xbe, 0x60, 0x53, 0x36, 0x3d, 0x00, 0x43, 0x64, 0x3c,
  0xc8, 0xe7, 0xcc, 0xbd, 0x80, 0x7e, 0x70, 0x3c, 0xa0, 0x68, 0x43, 0x3d,
  0x88, 0x36, 0x97, 0xbd, 0x50, 0x44, 0x7f, 0x3d, 0xe0, 0x44, 0x5e, 0xbe,
  0x58, 0x9a, 0xd4, 0xbd, 0xc0, 0xc3, 0xa7, 0xbd, 0xf0, 0xc9, 0x18, 0xbe,
  0x48, 0x66, 0x13, 0x3e, 0x34, 0x84, 0x07, 0xbe, 0xd4, 0x2c, 0x1b, 0xbe,
  0x74, 0x83, 0x16, 0x3e, 0x80, 0x22, 0x27, 0xbd, 0xb8, 0xda, 0xcb, 0x3d,
  0x04, 0xe3, 0x74, 0xbf, 0xa8, 0x83, 0x4d, 0x3e, 0x10, 0x43, 0x84, 0xbf,
  0x92, 0xc4, 0x64, 0xbf, 0x8b, 0x6d, 0x4a, 0xbf, 0x04, 0x00, 0x69, 0x3e,
  0xa0, 0x19, 0x40, 0x3d, 0xb7, 0x97, 0x9e, 0xbf, 0xcb, 0xa0, 0x99, 0xbe,
  0xef, 0x3f, 0xab, 0xbd, 0xc4, 0x5e, 0x52, 0x3d, 0x8d, 0x41, 0x01, 0xbf,
  0xff, 0x94, 0x8f, 0xbd, 0xf4, 0xa8, 0x25, 0xbf, 0x4c, 0x5a, 0xba, 0xbf,
  0xa4, 0xe0, 0x48, 0xbf, 0x0f, 0x42, 0x85, 0xbf, 0x98, 0x2d, 0x1e, 0x3e,
  0x0b, 0xf3, 0xfd, 0xbd, 0x94, 0x83, 0x43, 0xbf, 0x7e, 0xc7, 0x6b, 0xbe,
  0x14, 0xa2, 0xdf, 0x3c, 0x80, 0x78, 0xb6, 0xbc, 0x8a, 0x78, 0x57, 0xbf,
  0x54, 0x37, 0x83, 0x3e, 0x57, 0xa9, 0xc7, 0xbd, 0xb0, 0xa5, 0x38, 0xbd,
  0xed, 0x92, 0x2c, 0xbf, 0x0a, 0xdb, 0xdd, 0xbd, 0x4b, 0x40, 0x1a, 0xbf,
  0x72, 0xb9, 0x22, 0xbf, 0x6a, 0x92, 0xb2, 0xbe, 0x70, 0xaf, 0x23, 0xbf,
  0xd0, 0x80, 0x74, 0xbe, 0x30, 0xdf, 0xb7, 0xbe, 0x6f, 0xdc, 0xfe, 0xbe,
  0x44, 0x05, 0x6d, 0xbe, 0x58, 0xe7, 0x8c, 0x3e, 0x28, 0xfc, 0x8e, 0xbd,
  0x7c, 0x40, 0x83, 0xbf, 0x4a, 0x72, 0x77, 0x3b, 0x93, 0x2e, 0xa0, 0x3e,
  0x7e, 0xad, 0x98, 0x3e, 0xee, 0x7f, 0x2f, 0xbf, 0xa4, 0x61, 0xc4, 0x3a,
  0xb1, 0xd4, 0x2c, 0xbe, 0xca, 0x07, 0x52, 0xbf, 0x57, 0x6a, 0xd1, 0xbe,
  0xd4, 0xf6, 0x49, 0xbf, 0x58, 0x28, 0x86, 0x3d, 0xc2, 0xc7, 0x7d, 0x3d,
  0xb7, 0x52, 0x68, 0xbf, 0x0d, 0x4a, 0xe6, 0xbd, 0x79, 0xb3, 0x32, 0x3e,
  0xd8, 0x6b, 0x13, 0x3e, 0xd3, 0x14, 0x8f, 0xbf, 0xde, 0x72, 0x55, 0x3e,
  0x15, 0x99, 0x72, 0x3e, 0x1f, 0x0b, 0xf7, 0x3b, 0x71, 0x66, 0xb9, 0xbe,
  0x00, 0xfd, 0x79, 0xbe, 0xa0, 0xff, 0x17, 0xbf, 0xf1, 0x72, 0x15, 0xbf,
  0x25, 0x32, 0xe3, 0xbb, 0x30, 0xc2, 0x24, 0xbf, 0x4c, 0xb7, 0x36, 0xbe,
  0x1a, 0x5b, 0x46, 0xbf, 0x47, 0x27, 0x78, 0xbf, 0xee, 0xee, 0x0d, 0xbf,
  0x5b, 0x38, 0x5e, 0x3e, 0x88, 0xc9, 0x67, 0x3e, 0x1e, 0x3a, 0x93, 0xbf,
  0x35, 0xdc, 0xa6, 0xbd, 0xec, 0x39, 0xc5, 0x3d, 0x72, 0x55, 0x61, 0xbe,
  0xae, 0x76, 0xeb, 0xbe, 0xbd, 0x4e, 0xa4, 0xbd, 0x4d, 0xd0, 0xf6, 0xbe,
  0x58, 0x58, 0x87, 0xbf, 0x8a, 0x52, 0x6c, 0xbf, 0x76, 0x28, 0x95, 0xbf,
  0xb8, 0x46, 0xfe, 0x3d, 0x6a, 0x02, 0x5f, 0xbe, 0xe4, 0xe7, 0x50, 0xbf,
  0xe3, 0x7e, 0x2b, 0xbf, 0x88, 0x99, 0x06, 0x3d, 0x38, 0x0f, 0xa7, 0xbd,
  0x6f, 0xc0, 0x72, 0xbf, 0x2e, 0xd2, 0x4c, 0xbe, 0xef, 0x52, 0x7b, 0x3e,
  0xa7, 0x1f, 0x3a, 0xbe, 0x87, 0xb1, 0x1c, 0xbf, 0x41, 0xe8, 0x2c, 0xbe,
  0x2e, 0xc2, 0xc5, 0xbe, 0xa2, 0xdb, 0x71, 0xbf, 0xb1, 0x6b, 0x1f, 0xbf,
  0x38, 0x84, 0x5c, 0xbf, 0x68, 0xaa, 0xf7, 0x3d, 0xf4, 0xf7, 0xac, 0xbe,
  0xae, 0x12, 0x4c, 0xbf, 0x57, 0xdd, 0xcc, 0xbe, 0x15, 0x79, 0x54, 0x3c,
  0xc4, 0xa3, 0x54, 0x3e, 0x7b, 0x83, 0x81, 0xbf, 0x72, 0x76, 0x1b, 0xbe,
  0x43, 0x8c, 0x4a, 0x3e, 0xc9, 0x89, 0x38, 0xbe, 0xe6, 0xda, 0xf8, 0xbe,
  0xe0, 0x36, 0xbd, 0xbc, 0xe1, 0xc9, 0x15, 0xbf, 0x60, 0x2b, 0x2a, 0xbf,
  0x85, 0x0d, 0x3c, 0xbf, 0xc2, 0xb0, 0x30, 0xbf, 0xc0, 0xf6, 0x45, 0x3c,
  0x31, 0x07, 0xc2, 0xbd, 0x62, 0x61, 0x45, 0xbf, 0x5e, 0x7e, 0x66, 0xbe,
  0xb8, 0xde, 0xc3, 0x3e, 0x40, 0xf2, 0x07, 0xbd, 0x57, 0x21, 0xa0, 0xbf,
  0x8c, 0xf7, 0x9f, 0x3e, 0x3b, 0x9e, 0x1f, 0x3d, 0x79, 0xf8, 0x74, 0x3e,
  0xe2, 0x9e, 0x9e, 0xbe, 0x55, 0x54, 0x9b, 0xbe, 0xcb, 0xdd, 0xa7, 0xbe,
  0x4c, 0x7e, 0xf2, 0xbe, 0x8c, 0x05, 0xc8, 0xbd, 0x22, 0x32, 0x31, 0x3f,
  0xac, 0x90, 0x0a, 0xbe, 0xc9, 0x6a, 0x80, 0x3e, 0x2a, 0xbc, 0xbb, 0x3d,
  0x2f, 0x72, 0x63, 0x3e, 0xbe, 0x0d, 0x5a, 0xbc, 0xe0, 0xab, 0x5e, 0x3e,
  0xca, 0x80, 0x9a, 0x3f, 0xb4, 0x58, 0x19, 0x3d, 0x70, 0x60, 0xd9, 0xbd,
  0xe2, 0x06, 0x2a, 0xbe, 0x93, 0x22, 0xef, 0x3c, 0x8c, 0x88, 0xfd, 0x3e,
  0x56, 0xf5, 0x00, 0x3d, 0xe6, 0x25, 0x5b, 0x3f, 0xb3, 0xcf, 0x37, 0x3f,
  0x9a, 0x88, 0x81, 0x3e, 0x84, 0x7a, 0x29, 0x3e, 0x7c, 0xad, 0xad, 0xbd,
  0x6d, 0xf0, 0xbe, 0x3e, 0xb7, 0xda, 0x4d, 0x3e, 0x80, 0x7c, 0xf9, 0xbc,
  0x14, 0xd3, 0x6d, 0x3e, 0xbd, 0x9c, 0x40, 0x3f, 0xb3, 0x25, 0x05, 0xbd,
  0x7f, 0xe7, 0xcd, 0xbd, 0xc5, 0x1b, 0xb4, 0xbc, 0x81, 0x1f, 0xd9, 0x3d,
  0xdd, 0x9d, 0x5b, 0x3e, 0x36, 0xfd, 0x87, 0x3e, 0x9a, 0xb8, 0x1b, 0x3f,
  0x01, 0x9e, 0x23, 0x3f, 0x22, 0xbf, 0xb3, 0x3e, 0x00, 0xe9, 0x9b, 0xbb,
  0x59, 0x16, 0x1d, 0xbe, 0x63, 0x71, 0xce, 0x3e, 0x69, 0x4e, 0x25, 0xbe,
  0x16, 0xac, 0x81, 0xbe, 0xf0, 0x7f, 0x9e, 0xbd, 0x9d, 0x56, 0x2e, 0x3f,
  0x5d, 0x5f, 0x89, 0x3c, 0x75, 0x48, 0x50, 0x3e, 0xb0, 0x8d, 0x72, 0xbd,
  0xdb, 0xbd, 0x42, 0x3d, 0x5a, 0x47, 0x10, 0x3f, 0x0f, 0x74, 0x02, 0x3e,
  0x63, 0x5e, 0x67, 0x3e, 0x1f, 0xd3, 0x22, 0x3f, 0x3f, 0x6d, 0x1c, 0x3f,
  0x30, 0x24, 0x2c, 0xbe, 0xdc, 0xe4, 0x99, 0x3d, 0x72, 0xfb, 0xcb, 0x3e,
  0x4a, 0x55, 0xdb, 0x3d, 0x94, 0x92, 0x03, 0x3e, 0xe0, 0xf4, 0x28, 0x3e,
  0x0e, 0x36, 0x24, 0x3f, 0xb9, 0x25, 0x31, 0x3e, 0x14, 0x2d, 0x47, 0x3e,
  0x93, 0x56, 0x9d, 0xbd, 0x75, 0x77, 0x28, 0x3d, 0xaf, 0x37, 0x35, 0x3f,
  0xce, 0x90, 0x48, 0x3e, 0x72, 0xaf, 0xf0, 0x3e, 0xe0, 0x0e, 0x2a, 0x3f,
  0xe0, 0x11, 0x6f, 0x3e, 0xe0, 0xad, 0xf1, 0xbd, 0x80, 0x79, 0xc9, 0x3d,
  0x80, 0x07, 0xd6, 0xbc, 0xe0, 0x7e, 0x7b, 0xbe, 0xe0, 0x7f, 0x79, 0xbd,
  0x28, 0x44, 0x7f, 0x3e, 0xd0, 0xef, 0x5f, 0xbd, 0x28, 0xaa, 0x5b, 0xbe,
  0xa0, 0x11, 0x94, 0x3d, 0x80, 0xf9, 0x80, 0xbb, 0x24, 0x44, 0x22, 0xbe,
  0x28, 0xb1, 0xdd, 0xbd, 0x6c, 0xc8, 0x2d, 0x3e, 0x04, 0x9a, 0x03, 0xbe,
  0x9c, 0x4d, 0x00, 0xbe, 0xf4, 0xdc, 0x45, 0xbe, 0x80, 0xce, 0x6a, 0xbd,
  0x88, 0x95, 0xe3, 0x3d, 0x90, 0xfd, 0xa4, 0xbd, 0x80, 0xc1, 0x74, 0xbc,
  0x4c, 0xb4, 0x7b, 0xbe, 0x70, 0xf3, 0x91, 0xbd, 0xd8, 0xb8, 0x83, 0xbd,
  0x38, 0xa4, 0x94, 0xbd, 0x80, 0x20, 0x9a, 0xbd, 0xd8, 0x65, 0x1a, 0x3e,
  0x40, 0x48, 0x77, 0xbc, 0x98, 0x54, 0xf6, 0xbd, 0x58, 0x57, 0xbc, 0x3d,
  0x98, 0x6d, 0xaf, 0xbd, 0x48, 0x9c, 0x2d, 0x3e, 0x58, 0xe4, 0x47, 0x3e,
  0xcc, 0x09, 0x44, 0xbe, 0x38, 0xa2, 0xf5, 0x3d, 0x60, 0xec, 0xc6, 0xbd,
  0xa0, 0x5b, 0x7b, 0x3e, 0xc0, 0xd6, 0xa4, 0x3d, 0x80, 0xc5, 0xa6, 0xbd,
  0x40, 0xa0, 0x7a, 0x3d, 0xe0, 0xa8, 0x64, 0xbd, 0x2c, 0xb7, 0x4e, 0xbe,
  0x10, 0xec, 0xf3, 0x3d, 0x58, 0xef, 0xe6, 0x3d, 0xc0, 0x1f, 0x51, 0x3d,
  0xc8, 0xac, 0x05, 0xbe, 0x90, 0xa0, 0x43, 0x3d, 0x50, 0x33, 0x4f, 0xbe,
  0xd0, 0xe6, 0x23, 0x3e, 0xf0, 0x5b, 0x39, 0xbe, 0xd8, 0x58, 0x33, 0x3e,
  0x18, 0x5b, 0x77, 0xbe, 0x00, 0x77, 0x64, 0xbc, 0x20, 0x35, 0x71, 0xbe,
  0xd0, 0x9d, 0x3f, 0xbe, 0xe4, 0xc8, 0x5e, 0xbe, 0x10, 0x46, 0x19, 0xbe,
  0xec, 0x0e, 0x59, 0xbe, 0xc0, 0x6a, 0x9a, 0xbc, 0x74, 0x99, 0x72, 0xbe,
  0xec, 0x61, 0x55, 0x3e, 0xa0, 0x28, 0x0d, 0xbe, 0xb8, 0x03, 0x2f, 0x3e,
  0x24, 0xd2, 0x2f, 0xbe, 0xaf, 0x7e, 0x87, 0xbf, 0x30, 0xfb, 0xac, 0xbd,
  0x50, 0xe0, 0x31, 0xbf, 0x0b, 0x8f, 0x0f, 0xbf, 0x0e, 0xa6, 0x87, 0xbf,
  0x10, 0x18, 0xb8, 0x3d, 0xb4, 0x22, 0x1e, 0xbe, 0xa3, 0xc6, 0x97, 0xbf,
  0xca, 0x39, 0x6e, 0x3e, 0x63, 0x36, 0x3f, 0x3d, 0x89, 0x82, 0x7b, 0xbe,
  0x8a, 0x42, 0x8b, 0xbf, 0x9f, 0x48, 0x21, 0xbe, 0xfc, 0xa2, 0x25, 0xbf,
  0xd6, 0x81, 0xa8, 0xbf, 0x6f, 0x3e, 0x2f, 0xbf, 0x88, 0xf7, 0x66, 0xbf,
  0x40, 0x73, 0x40, 0xbd, 0xe0, 0x48, 0x8b, 0xbe, 0x5c, 0xa3, 0xa1, 0xbf,
  0xed, 0x1c, 0x3c, 0xbf, 0x22, 0x2e, 0x98, 0x3e, 0xa0, 0x18, 0x2a, 0xbd,
  0xda, 0x44, 0x4f, 0xbf, 0x6a, 0x49, 0x6e, 0x3e, 0x5f, 0xbc, 0xcb, 0xbc,
  0x34, 0x8f, 0xa8, 0xbe, 0x56, 0xb0, 0x3b, 0xbf, 0xb6, 0x48, 0xab, 0xbe,
  0x1a, 0xd0, 0x28, 0xbe, 0x73, 0xa7, 0x24, 0xbf, 0xab, 0x04, 0x2d, 0xbf,
  0xe1, 0x41, 0x89, 0xbf, 0x80, 0xcf, 0x98, 0xbc, 0xf2, 0x5a, 0x61, 0xbe,
  0x5c, 0x74, 0x81, 0xbf, 0x15, 0x46, 0x73, 0xbf, 0x0e, 0x38, 0x37, 0xbd,
  0x40, 0x86, 0x69, 0x3e, 0xf5, 0xe5, 0x99, 0xbf, 0xd9, 0x43, 0x5e, 0x3e,
  0x96, 0x38, 0xa9, 0xbc, 0xc3, 0xb4, 0x85, 0xbe, 0x64, 0xdb, 0x85, 0xbf,
  0xe3, 0x7a, 0x7d, 0xbe, 0x15, 0x72, 0xf3, 0xbe, 0xe9, 0xb6, 0x46, 0xbf,
  0xa9, 0x44, 0xfe, 0xbe, 0xec, 0x97, 0x5d, 0xbf, 0x08, 0x8d, 0x94, 0xbd,
  0x78, 0x79, 0x63, 0xbe, 0x53, 0x4d, 0x90, 0xbf, 0x53, 0xe2, 0xb6, 0xbe,
  0xa5, 0x1c, 0x05, 0x3e, 0x98, 0x92, 0xf9, 0x3d, 0xb6, 0x77, 0x85, 0xbf,
  0xfd, 0x88, 0x98, 0x3d, 0xfc, 0x5d, 0xc9, 0x3e, 0xee, 0xb8, 0x4d, 0xbe,
  0x54, 0x7b, 0xc3, 0xbe, 0x00, 0x42, 0x39, 0xbe, 0xdd, 0x61, 0x90, 0xbe,
  0xfa, 0x54, 0x46, 0xbf, 0xeb, 0x5f, 0xf7, 0xbe, 0xd7, 0xcb, 0xe9, 0x3e,
  0xe0, 0x3c, 0x9d, 0xbd, 0x05, 0xc4, 0x02, 0x3f, 0xf4, 0x00, 0x24, 0x3b,
  0x68, 0xae, 0x35, 0xbd, 0x5c, 0x9e, 0x0c, 0x3e, 0xe0, 0xfb, 0x1f, 0x3e,
  0x5c, 0xa0, 0x89, 0x3f, 0xe7, 0xde, 0x97, 0x3e, 0x02, 0xcd, 0x69, 0xbd,
  0xaf, 0x19, 0x96, 0xbe, 0x19, 0xd5, 0x7f, 0x3e, 0x91, 0x2f, 0x18, 0x3f,
  0xc4, 0x8e, 0x01, 0x3e, 0x1e, 0xb9, 0x57, 0x3f, 0xef, 0x58, 0x83, 0x3f,
  0xfc, 0x36, 0xcd, 0x3e, 0xe4, 0xdb, 0x42, 0xbe, 0xa4, 0xca, 0x7c, 0xbe,
  0x83, 0x25, 0xad, 0x3e, 0xf5, 0xdc, 0xd5, 0x3d, 0x5b, 0xdb, 0x48, 0xbd,
  0x10, 0xe3, 0x23, 0x3d, 0x16, 0x61, 0xf1, 0x3e, 0x53, 0xc8, 0x37, 0xbd,
  0x78, 0x59, 0xa2, 0x3d, 0xed, 0xbb, 0x1d, 0xbe, 0x09, 0xb9, 0x8e, 0x3d,
  0xb4, 0xcf, 0x85, 0x3e, 0x6c, 0x02, 0xfd, 0x3d, 0x40, 0x99, 0xeb, 0x3e,
  0x84, 0x10, 0x1f, 0x3f, 0xf3, 0x49, 0x1b, 0x3f, 0xdc, 0xf4, 0x1a, 0xbe,
  0x68, 0x01, 0x8f, 0xbd, 0x16, 0xb0, 0xcc, 0x3e, 0xf3, 0x66, 0x82, 0x3e,
  0x2b, 0x09, 0x6e, 0xbe, 0xf8, 0xc1, 0xd6, 0xbd, 0xfa, 0x1a, 0x3c, 0x3f,
  0x83, 0xc0, 0x42, 0x3d, 0x01, 0x14, 0x35, 0x3e, 0x70, 0x35, 0xcf, 0xbe,
  0x9d, 0x93, 0x74, 0x3d, 0xdc, 0x1a, 0xb3, 0x3e, 0x35, 0xee, 0xd6, 0x3e,
  0x86, 0x2f, 0xfd, 0x3e, 0x54, 0x06, 0x17, 0x3f, 0x83, 0x4c, 0xc3, 0x3e,
  0xc0, 0x01, 0xc4, 0x3c, 0x40, 0xfc, 0x0a, 0x3d, 0x9a, 0x59, 0xc8, 0x3e,
  0xf3, 0x3e, 0x75, 0xbe, 0x4f, 0x2c, 0xf4, 0xbd, 0x00, 0x2b, 0x01, 0xbe,
  0xbe, 0x4a, 0x5f, 0x3f, 0x6e, 0xbd, 0x17, 0xbe, 0xe3, 0xc2, 0x25, 0x3d,
  0x8c, 0x87, 0xae, 0xbe, 0xfb, 0x72, 0xb5, 0x3d, 0x11, 0xd3, 0x38, 0x3f,
  0xed, 0x95, 0x84, 0x3e, 0x22, 0xb2, 0xb8, 0x3e, 0x1c, 0x31, 0x4e, 0x3f,
  0x5a, 0xfe, 0xff, 0xff, 0x04, 0x00, 0x00, 0x00, 0x80, 0x00, 0x00, 0x00,
  0xeb, 0xbc, 0x2f, 0xbe, 0x6d, 0xe5, 0x3c, 0x3f, 0x46, 0x69, 0x62, 0x3f,
  0x65, 0x3b, 0x29, 0x3f, 0x67, 0xc8, 0x71, 0x3f, 0x38, 0xaf, 0xaa, 0xbd,
  0xc8, 0x35, 0x82, 0xbf, 0x79, 0x5c, 0x19, 0x3f, 0xf9, 0x10, 0x66, 0xbf,
  0xdf, 0x63, 0x1f, 0xbf, 0x39, 0xf6, 0x07, 0xbe, 0xd3, 0x83, 0x7d, 0x3f,
  0x4c, 0xf3, 0x77, 0x3e, 0x6e, 0xed, 0xc4, 0x3c, 0x8a, 0xeb, 0x06, 0xbe,
  0xb6, 0xb9, 0x7c, 0x3f, 0xe0, 0x9b, 0x30, 0xbf, 0x5e, 0xc7, 0x6c, 0x3f,
  0xd1, 0x5a, 0x07, 0xbe, 0xda, 0x5b, 0xc3, 0xbf, 0xcf, 0xaa, 0x52, 0x3d,
  0x81, 0xe6, 0x86, 0x3f, 0x73, 0x0d, 0xa4, 0xbf, 0x52, 0x9b, 0x2d, 0x3f,
  0x4f, 0x19, 0x71, 0xbf, 0x0a, 0x61, 0xb4, 0x3e, 0x81, 0x73, 0xa1, 0xbf,
  0xd5, 0x81, 0x90, 0xbf, 0x87, 0x1f, 0x43, 0x3f, 0x98, 0xc4, 0x28, 0x3d,
  0x2f, 0x91, 0x93, 0xbf, 0x49, 0x13, 0x56, 0x3f, 0xe6, 0xfe, 0xff, 0xff,
  0x04, 0x00, 0x00, 0x00, 0x40, 0x00, 0x00, 0x00, 0x00, 0x00, 0x00, 0x00,
  0x00, 0x00, 0x00, 0x00, 0x00, 0x00, 0x00, 0x00, 0x00, 0x00, 0x00, 0x00,
  0x00, 0x00, 0x00, 0x00, 0x00, 0x00, 0x00, 0x00, 0x00, 0x00, 0x00, 0x00,
  0x00, 0x00, 0x00, 0x00, 0x00, 0x00, 0x00, 0x00, 0x00, 0x00, 0x00, 0x00,
  0x00, 0x00, 0x00, 0x00, 0x00, 0x00, 0x00, 0x00, 0x00, 0x00, 0x00, 0x00,
  0x00, 0x00, 0x00, 0x00, 0x00, 0x00, 0x00, 0x00, 0x00, 0x00, 0x00, 0x00,
  0x32, 0xff, 0xff, 0xff, 0x04, 0x00, 0x00, 0x00, 0xc0, 0x00, 0x00, 0x00,
  0x27, 0x4f, 0xf8, 0x3d, 0xe3, 0xac, 0x15, 0xbf, 0x0f, 0x23, 0xd8, 0x3e,
  0x39, 0xd4, 0x1b, 0xbe, 0x18, 0xfc, 0xa1, 0xbd, 0xe2, 0x91, 0xd6, 0xbd,
  0x75, 0x69, 0xeb, 0x3e, 0x8f, 0x08, 0x83, 0x3d, 0x2f, 0xa4, 0xa6, 0xbe,
  0x66, 0x52, 0xdc, 0x3d, 0x1a, 0x1d, 0x09, 0xbf, 0x57, 0xd1, 0xcf, 0x3e,
  0x1e, 0xbb, 0x92, 0xbe, 0xb2, 0x2b, 0xb7, 0x3e, 0x42, 0x6c, 0x1a, 0xbe,
  0x28, 0x39, 0xdc, 0x3d, 0xc2, 0xff, 0x95, 0x3e, 0x72, 0xa9, 0x1e, 0x3e,
  0x33, 0x50, 0x14, 0xbe, 0x42, 0xe9, 0xa4, 0xbe, 0xe8, 0xe4, 0x07, 0xbd,
  0x27, 0x2a, 0xb4, 0x3e, 0x3b, 0xae, 0x03, 0xbf, 0x34, 0xdd, 0xb1, 0x3e,
  0x42, 0xe6, 0x56, 0x3e, 0x5c, 0xd4, 0x0e, 0x3e, 0xba, 0xc5, 0x7d, 0x3d,
  0x4f, 0x25, 0xc9, 0x3e, 0xb7, 0xc7, 0xb6, 0x3e, 0x8a, 0xad, 0xc2, 0x3c,
  0xef, 0x37, 0x94, 0xbe, 0x15, 0xfa, 0x01, 0xbe, 0xb2, 0xe0, 0xcb, 0x3e,
  0x33, 0x9e, 0xc2, 0xbe, 0x05, 0x1d, 0x04, 0x3f, 0x05, 0x5d, 0x59, 0xbe,
  0xcf, 0x43, 0xa2, 0xbe, 0xef, 0x0d, 0xfe, 0xbe, 0xa8, 0x33, 0x36, 0x3e,
  0x2d, 0x7f, 0xe6, 0x3d, 0xd4, 0x9a, 0x06, 0x3d, 0x2c, 0xf0, 0xc4, 0xbe,
  0xba, 0x87, 0x01, 0xbf, 0xc7, 0x01, 0xef, 0x3e, 0x0d, 0x72, 0x32, 0x3e,
  0x2e, 0x1c, 0x2f, 0xbf, 0xb7, 0xe4, 0xaa, 0x3e, 0x30, 0xba, 0xde, 0x3c,
  0x00, 0x00, 0x06, 0x00, 0x08, 0x00, 0x04, 0x00, 0x06, 0x00, 0x00, 0x00,
  0x04, 0x00, 0x00, 0x00, 0x0c, 0x00, 0x00, 0x00, 0xff, 0xff, 0xff, 0xff,
  0x08, 0x00, 0x00, 0x00, 0x10, 0x00, 0x00, 0x00, 0x80, 0xf4, 0xff, 0xff,
  0x84, 0xf4, 0xff, 0xff, 0x0f, 0x00, 0x00, 0x00, 0x4d, 0x4c, 0x49, 0x52,
  0x20, 0x43, 0x6f, 0x6e, 0x76, 0x65, 0x72, 0x74, 0x65, 0x64, 0x2e, 0x00,
  0x01, 0x00, 0x00, 0x00, 0x14, 0x00, 0x00, 0x00, 0x00, 0x00, 0x0e, 0x00,
  0x18, 0x00, 0x14, 0x00, 0x10, 0x00, 0x0c, 0x00, 0x08, 0x00, 0x04, 0x00,
  0x0e, 0x00, 0x00, 0x00, 0x14, 0x00, 0x00, 0x00, 0x1c, 0x00, 0x00, 0x00,
  0x74, 0x02, 0x00, 0x00, 0x78, 0x02, 0x00, 0x00, 0x7c, 0x02, 0x00, 0x00,
  0x04, 0x00, 0x00, 0x00, 0x6d, 0x61, 0x69, 0x6e, 0x00, 0x00, 0x00, 0x00,
  0x0a, 0x00, 0x00, 0x00, 0x2c, 0x02, 0x00, 0x00, 0xcc, 0x01, 0x00, 0x00,
  0x94, 0x01, 0x00, 0x00, 0x48, 0x01, 0x00, 0x00, 0x18, 0x01, 0x00, 0x00,
  0xc4, 0x00, 0x00, 0x00, 0x9c, 0x00, 0x00, 0x00, 0x60, 0x00, 0x00, 0x00,
  0x28, 0x00, 0x00, 0x00, 0x04, 0x00, 0x00, 0x00, 0x96, 0xfe, 0xff, 0xff,
  0x0c, 0x00, 0x00, 0x00, 0x10, 0x00, 0x00, 0x00, 0x06, 0x00, 0x00, 0x00,
  0x01, 0x00, 0x00, 0x00, 0x15, 0x00, 0x00, 0x00, 0x01, 0x00, 0x00, 0x00,
  0x14, 0x00, 0x00, 0x00, 0x86, 0xfe, 0xff, 0xff, 0x14, 0x00, 0x00, 0x00,
  0x00, 0x00, 0x00, 0x08, 0x10, 0x00, 0x00, 0x00, 0x14, 0x00, 0x00, 0x00,
  0x05, 0x00, 0x00, 0x00, 0x3c, 0xf5, 0xff, 0xff, 0x01, 0x00, 0x00, 0x00,
  0x14, 0x00, 0x00, 0x00, 0x03, 0x00, 0x00, 0x00, 0x13, 0x00, 0x00, 0x00,
  0x04, 0x00, 0x00, 0x00, 0x07, 0x00, 0x00, 0x00, 0xba, 0xfe, 0xff, 0xff,
  0x14, 0x00, 0x00, 0x00, 0x00, 0x00, 0x00, 0x08, 0x14, 0x00, 0x00, 0x00,
  0x18, 0x00, 0x00, 0x00, 0x05, 0x00, 0x00, 0x00, 0x26, 0xff, 0xff, 0xff,
  0x00, 0x00, 0x00, 0x01, 0x01, 0x00, 0x00, 0x00, 0x13, 0x00, 0x00, 0x00,
  0x03, 0x00, 0x00, 0x00, 0x12, 0x00, 0x00, 0x00, 0x05, 0x00, 0x00, 0x00,
  0x08, 0x00, 0x00, 0x00, 0x22, 0xff, 0xff, 0xff, 0x0c, 0x00, 0x00, 0x00,
  0x10, 0x00, 0x00, 0x00, 0x02, 0x00, 0x00, 0x00, 0x01, 0x00, 0x00, 0x00,
  0x12, 0x00, 0x00, 0x00, 0x02, 0x00, 0x00, 0x00, 0x11, 0x00, 0x00, 0x00,
  0x0a, 0x00, 0x00, 0x00, 0x16, 0xff, 0xff, 0xff, 0x24, 0x00, 0x00, 0x00,
  0x00, 0x00, 0x00, 0x05, 0x34, 0x00, 0x00, 0x00, 0x38, 0x00, 0x00, 0x00,
  0x04, 0x00, 0x00, 0x00, 0x00, 0x00, 0x0e, 0x00, 0x18, 0x00, 0x17, 0x00,
  0x10, 0x00, 0x0c, 0x00, 0x08, 0x00, 0x04, 0x00, 0x0e, 0x00, 0x00, 0x00,
  0x01, 0x00, 0x00, 0x00, 0x02, 0x00, 0x00, 0x00, 0x01, 0x00, 0x00, 0x00,
  0x02, 0x00, 0x00, 0x00, 0x00, 0x00, 0x00, 0x01, 0x01, 0x00, 0x00, 0x00,
  0x11, 0x00, 0x00, 0x00, 0x01, 0x00, 0x00, 0x00, 0x10, 0x00, 0x00, 0x00,
  0x0a, 0xff, 0xff, 0xff, 0x10, 0x00, 0x00, 0x00, 0x00, 0x00, 0x00, 0x34,
  0x0c, 0x00, 0x00, 0x00, 0x10, 0x00, 0x00, 0x00, 0x18, 0xf6, 0xff, 0xff,
  0x01, 0x00, 0x00, 0x00, 0x10, 0x00, 0x00, 0x00, 0x02, 0x00, 0x00, 0x00,
  0x0f, 0x00, 0x00, 0x00, 0x09, 0x00, 0x00, 0x00, 0x92, 0xff, 0xff, 0xff,
  0x1c, 0x00, 0x00, 0x00, 0x00, 0x00, 0x00, 0x0b, 0x1c, 0x00, 0x00, 0x00,
  0x20, 0x00, 0x00, 0x00, 0x03, 0x00, 0x00, 0x00, 0x00, 0x00, 0x06, 0x00,
  0x08, 0x00, 0x07, 0x00, 0x06, 0x00, 0x00, 0x00, 0x00, 0x00, 0x00, 0x01,
  0x01, 0x00, 0x00, 0x00, 0x0f, 0x00, 0x00, 0x00, 0x02, 0x00, 0x00, 0x00,
  0x0e, 0x00, 0x00, 0x00, 0x06, 0x00, 0x00, 0x00, 0x00, 0x00, 0x0a, 0x00,
  0x10, 0x00, 0x0c, 0x00, 0x08, 0x00, 0x04, 0x00, 0x0a, 0x00, 0x00, 0x00,
  0x0c, 0x00, 0x00, 0x00, 0x10, 0x00, 0x00, 0x00, 0x02, 0x00, 0x00, 0x00,
  0x01, 0x00, 0x00, 0x00, 0x0e, 0x00, 0x00, 0x00, 0x02, 0x00, 0x00, 0x00,
  0x0d, 0x00, 0x00, 0x00, 0x01, 0x00, 0x00, 0x00, 0x00, 0x00, 0x0e, 0x00,
  0x1a, 0x00, 0x14, 0x00, 0x10, 0x00, 0x0c, 0x00, 0x0b, 0x00, 0x04, 0x00,
  0x0e, 0x00, 0x00, 0x00, 0x20, 0x00, 0x00, 0x00, 0x00, 0x00, 0x00, 0x01,
  0x28, 0x00, 0x00, 0x00, 0x2c, 0x00, 0x00, 0x00, 0x01, 0x00, 0x00, 0x00,
  0x00, 0x00, 0x0a, 0x00, 0x10, 0x00, 0x0f, 0x00, 0x08, 0x00, 0x04, 0x00,
  0x0a, 0x00, 0x00, 0x00, 0x01, 0x00, 0x00, 0x00, 0x01, 0x00, 0x00, 0x00,
  0x00, 0x00, 0x00, 0x01, 0x01, 0x00, 0x00, 0x00, 0x0d, 0x00, 0x00, 0x00,
  0x03, 0x00, 0x00, 0x00, 0x0c, 0x00, 0x00, 0x00, 0x02, 0x00, 0x00, 0x00,
  0x03, 0x00, 0x00, 0x00, 0x00, 0x00, 0x0e, 0x00, 0x14, 0x00, 0x00, 0x00,
  0x10, 0x00, 0x0c, 0x00, 0x0b, 0x00, 0x04, 0x00, 0x0e, 0x00, 0x00, 0x00,
  0x10, 0x00, 0x00, 0x00, 0x00, 0x00, 0x00, 0x34, 0x0c, 0x00, 0x00, 0x00,
  0x10, 0x00, 0x00, 0x00, 0x1c, 0xf7, 0xff, 0xff, 0x01, 0x00, 0x00, 0x00,
  0x0c, 0x00, 0x00, 0x00, 0x02, 0x00, 0x00, 0x00, 0x00, 0x00, 0x00, 0x00,
  0x0b, 0x00, 0x00, 0x00, 0x01, 0x00, 0x00, 0x00, 0x15, 0x00, 0x00, 0x00,
  0x01, 0x00, 0x00, 0x00, 0x00, 0x00, 0x00, 0x00, 0x16, 0x00, 0x00, 0x00,
  0x0c, 0x08, 0x00, 0x00, 0xb4, 0x07, 0x00, 0x00, 0x54, 0x07, 0x00, 0x00,
  0x00, 0x07, 0x00, 0x00, 0xc0, 0x06, 0x00, 0x00, 0x80, 0x06, 0x00, 0x00,
  0x3c, 0x06, 0x00, 0x00, 0x00, 0x06, 0x00, 0x00, 0xc4, 0x05, 0x00, 0x00,
  0x88, 0x05, 0x00, 0x00, 0x48, 0x05, 0x00, 0x00, 0xe4, 0x04, 0x00, 0x00,
  0x60, 0x04, 0x00, 0x00, 0xe8, 0x03, 0x00, 0x00, 0x70, 0x03, 0x00, 0x00,
  0xe8, 0x02, 0x00, 0x00, 0x60, 0x02, 0x00, 0x00, 0xe4, 0x01, 0x00, 0x00,
  0x80, 0x01, 0x00, 0x00, 0xe0, 0x00, 0x00, 0x00, 0x60, 0x00, 0x00, 0x00,
  0x04, 0x00, 0x00, 0x00, 0x62, 0xf8, 0xff, 0xff, 0x00, 0x00, 0x00, 0x01,
  0x14, 0x00, 0x00, 0x00, 0x1c, 0x00, 0x00, 0x00, 0x1c, 0x00, 0x00, 0x00,
  0x16, 0x00, 0x00, 0x00, 0x34, 0x00, 0x00, 0x00, 0x02, 0x00, 0x00, 0x00,
  0xff, 0xff, 0xff, 0xff, 0x01, 0x00, 0x00, 0x00, 0xc8, 0xf7, 0xff, 0xff,
  0x1b, 0x00, 0x00, 0x00, 0x53, 0x74, 0x61, 0x74, 0x65, 0x66, 0x75, 0x6c,
  0x50, 0x61, 0x72, 0x74, 0x69, 0x74, 0x69, 0x6f, 0x6e, 0x65, 0x64, 0x43,
  0x61, 0x6c, 0x6c, 0x5f, 0x31, 0x3a, 0x30, 0x00, 0x02, 0x00, 0x00, 0x00,
  0x01, 0x00, 0x00, 0x00, 0x01, 0x00, 0x00, 0x00, 0xba, 0xf8, 0xff, 0xff,
  0x00, 0x00, 0x00, 0x01, 0x14, 0x00, 0x00, 0x00, 0x1c, 0x00, 0x00, 0x00,
  0x1c, 0x00, 0x00, 0x00, 0x15, 0x00, 0x00, 0x00, 0x58, 0x00, 0x00, 0x00,
  0x02, 0x00, 0x00, 0x00, 0xff, 0xff, 0xff, 0xff, 0x01, 0x00, 0x00, 0x00,
  0x20, 0xf8, 0xff, 0xff, 0x3e, 0x00, 0x00, 0x00, 0x73, 0x65, 0x71, 0x75,
  0x65, 0x6e, 0x74, 0x69, 0x61, 0x6c, 0x5f, 0x39, 0x5f, 0x31, 0x2f, 0x64,
  0x65, 0x6e, 0x73, 0x65, 0x5f, 0x32, 0x35, 0x5f, 0x31, 0x2f, 0x4d, 0x61,
  0x74, 0x4d, 0x75, 0x6c, 0x3b, 0x73, 0x65, 0x71, 0x75, 0x65, 0x6e, 0x74,
  0x69, 0x61, 0x6c, 0x5f, 0x39, 0x5f, 0x31, 0x2f, 0x64, 0x65, 0x6e, 0x73,
  0x65, 0x5f, 0x32, 0x35, 0x5f, 0x31, 0x2f, 0x41, 0x64, 0x64, 0x00, 0x00,
  0x02, 0x00, 0x00, 0x00, 0x01, 0x00, 0x00, 0x00, 0x01, 0x00, 0x00, 0x00,
  0x36, 0xf9, 0xff, 0xff, 0x00, 0x00, 0x00, 0x01, 0x14, 0x00, 0x00, 0x00,
  0x1c, 0x00, 0x00, 0x00, 0x1c, 0x00, 0x00, 0x00, 0x14, 0x00, 0x00, 0x00,
  0x78, 0x00, 0x00, 0x00, 0x02, 0x00, 0x00, 0x00, 0xff, 0xff, 0xff, 0xff,
  0x20, 0x00, 0x00, 0x00, 0x9c, 0xf8, 0xff, 0xff, 0x5d, 0x00, 0x00, 0x00,
  0x73, 0x65, 0x71, 0x75, 0x65, 0x6e, 0x74, 0x69, 0x61, 0x6c, 0x5f, 0x39,
  0x5f, 0x31, 0x2f, 0x64, 0x65, 0x6e, 0x73, 0x65, 0x5f, 0x32, 0x34, 0x5f,
  0x31, 0x2f, 0x4d, 0x61, 0x74, 0x4d, 0x75, 0x6c, 0x3b, 0x73, 0x65, 0x71,
  0x75, 0x65, 0x6e, 0x74, 0x69, 0x61, 0x6c, 0x5f, 0x39, 0x5f, 0x31, 0x2f,
  0x64, 0x65, 0x6e, 0x73, 0x65, 0x5f, 0x32, 0x34, 0x5f, 0x31, 0x2f, 0x52,
  0x65, 0x6c, 0x75, 0x3b, 0x73, 0x65, 0x71, 0x75, 0x65, 0x6e, 0x74, 0x69,
  0x61, 0x6c, 0x5f, 0x39, 0x5f, 0x31, 0x2f, 0x64, 0x65, 0x6e, 0x73, 0x65,
  0x5f, 0x32, 0x34, 0x5f, 0x31, 0x2f, 0x41, 0x64, 0x64, 0x00, 0x00, 0x00,
  0x02, 0x00, 0x00, 0x00, 0x01, 0x00, 0x00, 0x00, 0x20, 0x00, 0x00, 0x00,
  0xd2, 0xf9, 0xff, 0xff, 0x00, 0x00, 0x00, 0x01, 0x14, 0x00, 0x00, 0x00,
  0x1c, 0x00, 0x00, 0x00, 0x1c, 0x00, 0x00, 0x00, 0x13, 0x00, 0x00, 0x00,
  0x3c, 0x00, 0x00, 0x00, 0x02, 0x00, 0x00, 0x00, 0xff, 0xff, 0xff, 0xff,
  0x40, 0x00, 0x00, 0x00, 0x38, 0xf9, 0xff, 0xff, 0x22, 0x00, 0x00, 0x00,
  0x73, 0x65, 0x71, 0x75, 0x65, 0x6e, 0x74, 0x69, 0x61, 0x6c, 0x5f, 0x39,
  0x5f, 0x31, 0x2f, 0x66, 0x6c, 0x61, 0x74, 0x74, 0x65, 0x6e, 0x5f, 0x33,
  0x5f, 0x31, 0x2f, 0x52, 0x65, 0x73, 0x68, 0x61, 0x70, 0x65, 0x00, 0x00,
  0x02, 0x00, 0x00, 0x00, 0x01, 0x00, 0x00, 0x00, 0x40, 0x00, 0x00, 0x00,
  0x32, 0xfa, 0xff, 0xff, 0x00, 0x00, 0x00, 0x01, 0x14, 0x00, 0x00, 0x00,
  0x24, 0x00, 0x00, 0x00, 0x24, 0x00, 0x00, 0x00, 0x12, 0x00, 0x00, 0x00,
  0x4c, 0x00, 0x00, 0x00, 0x04, 0x00, 0x00, 0x00, 0xff, 0xff, 0xff, 0xff,
  0x01, 0x00, 0x00, 0x00, 0x04, 0x00, 0x00, 0x00, 0x10, 0x00, 0x00, 0x00,
  0xa0, 0xf9, 0xff, 0xff, 0x2a, 0x00, 0x00, 0x00, 0x73, 0x65, 0x71, 0x75,
  0x65, 0x6e, 0x74, 0x69, 0x61, 0x6c, 0x5f, 0x39, 0x5f, 0x31, 0x2f, 0x6d,
  0x61, 0x78, 0x5f, 0x70, 0x6f, 0x6f, 0x6c, 0x69, 0x6e, 0x67, 0x31, 0x64,
  0x5f, 0x36, 0x5f, 0x31, 0x2f, 0x4d, 0x61, 0x78, 0x50, 0x6f, 0x6f, 0x6c,
  0x31, 0x64, 0x00, 0x00, 0x04, 0x00, 0x00, 0x00, 0x01, 0x00, 0x00, 0x00,
  0x01, 0x00, 0x00, 0x00, 0x04, 0x00, 0x00, 0x00, 0x10, 0x00, 0x00, 0x00,
  0xaa, 0xfa, 0xff, 0xff, 0x00, 0x00, 0x00, 0x01, 0x14, 0x00, 0x00, 0x00,
  0x24, 0x00, 0x00, 0x00, 0x24, 0x00, 0x00, 0x00, 0x11, 0x00, 0x00, 0x00,
  0x58, 0x00, 0x00, 0x00, 0x04, 0x00, 0x00, 0x00, 0xff, 0xff, 0xff, 0xff,
  0x01, 0x00, 0x00, 0x00, 0x08, 0x00, 0x00, 0x00, 0x10, 0x00, 0x00, 0x00,
  0x18, 0xfa, 0xff, 0xff, 0x35, 0x00, 0x00, 0x00, 0x73, 0x65, 0x71, 0x75,
  0x65, 0x6e, 0x74, 0x69, 0x61, 0x6c, 0x5f, 0x39, 0x5f, 0x31, 0x2f, 0x6d,
  0x61, 0x78, 0x5f, 0x70, 0x6f, 0x6f, 0x6c, 0x69, 0x6e, 0x67, 0x31, 0x64,
  0x5f, 0x36, 0x5f, 0x31, 0x2f, 0x4d, 0x61, 0x78, 0x50, 0x6f, 0x6f, 0x6c,
  0x31, 0x64, 0x2f, 0x45, 0x78, 0x70, 0x61, 0x6e, 0x64, 0x44, 0x69, 0x6d,
  0x73, 0x00, 0x00, 0x00, 0x04, 0x00, 0x00, 0x00, 0x01, 0x00, 0x00, 0x00,
  0x01, 0x00, 0x00, 0x00, 0x08, 0x00, 0x00, 0x00, 0x10, 0x00, 0x00, 0x00,
  0x2e, 0xfb, 0xff, 0xff, 0x00, 0x00, 0x00, 0x01, 0x14, 0x00, 0x00, 0x00,
  0x20, 0x00, 0x00, 0x00, 0x20, 0x00, 0x00, 0x00, 0x10, 0x00, 0x00, 0x00,
  0x5c, 0x00, 0x00, 0x00, 0x03, 0x00, 0x00, 0x00, 0xff, 0xff, 0xff, 0xff,
  0x08, 0x00, 0x00, 0x00, 0x10, 0x00, 0x00, 0x00, 0x98, 0xfa, 0xff, 0xff,
  0x3c, 0x00, 0x00, 0x00, 0x73, 0x65, 0x71, 0x75, 0x65, 0x6e, 0x74, 0x69,
  0x61, 0x6c, 0x5f, 0x39, 0x5f, 0x31, 0x2f, 0x63, 0x6f, 0x6e, 0x76, 0x31,
  0x64, 0x5f, 0x36, 0x5f, 0x31, 0x2f, 0x52, 0x65, 0x6c, 0x75, 0x3b, 0x73,
  0x65, 0x71, 0x75, 0x65, 0x6e, 0x74, 0x69, 0x61, 0x6c, 0x5f, 0x39, 0x5f,
  0x31, 0x2f, 0x63, 0x6f, 0x6e, 0x76, 0x31, 0x64, 0x5f, 0x36, 0x5f, 0x31,
  0x2f, 0x61, 0x64, 0x64, 0x00, 0x00, 0x00, 0x00, 0x03, 0x00, 0x00, 0x00,
  0x01, 0x00, 0x00, 0x00, 0x08, 0x00, 0x00, 0x00, 0x10, 0x00, 0x00, 0x00,
  0xb2, 0xfb, 0xff, 0xff, 0x00, 0x00, 0x00, 0x01, 0x14, 0x00, 0x00, 0x00,
  0x20, 0x00, 0x00, 0x00, 0x20, 0x00, 0x00, 0x00, 0x0f, 0x00, 0x00, 0x00,
  0x4c, 0x00, 0x00, 0x00, 0x03, 0x00, 0x00, 0x00, 0xff, 0xff, 0xff, 0xff,
  0x08, 0x00, 0x00, 0x00, 0x10, 0x00, 0x00, 0x00, 0x1c, 0xfb, 0xff, 0xff,
  0x2d, 0x00, 0x00, 0x00, 0x73, 0x65, 0x71, 0x75, 0x65, 0x6e, 0x74, 0x69,
  0x61, 0x6c, 0x5f, 0x39, 0x5f, 0x31, 0x2f, 0x63, 0x6f, 0x6e, 0x76, 0x31,
  0x64, 0x5f, 0x36, 0x5f, 0x31, 0x2f, 0x63, 0x6f, 0x6e, 0x76, 0x6f, 0x6c,
  0x75, 0x74, 0x69, 0x6f, 0x6e, 0x2f, 0x53, 0x71, 0x75, 0x65, 0x65, 0x7a,
  0x65, 0x00, 0x00, 0x00, 0x03, 0x00, 0x00, 0x00, 0x01, 0x00, 0x00, 0x00,
  0x08, 0x00, 0x00, 0x00, 0x10, 0x00, 0x00, 0x00, 0x26, 0xfc, 0xff, 0xff,
  0x00, 0x00, 0x00, 0x01, 0x14, 0x00, 0x00, 0x00, 0x24, 0x00, 0x00, 0x00,
  0x24, 0x00, 0x00, 0x00, 0x0e, 0x00, 0x00, 0x00, 0x48, 0x00, 0x00, 0x00,
  0x04, 0x00, 0x00, 0x00, 0xff, 0xff, 0xff, 0xff, 0x01, 0x00, 0x00, 0x00,
  0x08, 0x00, 0x00, 0x00, 0x10, 0x00, 0x00, 0x00, 0x94, 0xfb, 0xff, 0xff,
  0x25, 0x00, 0x00, 0x00, 0x73, 0x65, 0x71, 0x75, 0x65, 0x6e, 0x74, 0x69,
  0x61, 0x6c, 0x5f, 0x39, 0x5f, 0x31, 0x2f, 0x63, 0x6f, 0x6e, 0x76, 0x31,
  0x64, 0x5f, 0x36, 0x5f, 0x31, 0x2f, 0x63, 0x6f, 0x6e, 0x76, 0x6f, 0x6c,
  0x75, 0x74, 0x69, 0x6f, 0x6e, 0x00, 0x00, 0x00, 0x04, 0x00, 0x00, 0x00,
  0x01, 0x00, 0x00, 0x00, 0x01, 0x00, 0x00, 0x00, 0x08, 0x00, 0x00, 0x00,
  0x10, 0x00, 0x00, 0x00, 0x9a, 0xfc, 0xff, 0xff, 0x00, 0x00, 0x00, 0x01,
  0x14, 0x00, 0x00, 0x00, 0x24, 0x00, 0x00, 0x00, 0x24, 0x00, 0x00, 0x00,
  0x0d, 0x00, 0x00, 0x00, 0x54, 0x00, 0x00, 0x00, 0x04, 0x00, 0x00, 0x00,
  0xff, 0xff, 0xff, 0xff, 0x01, 0x00, 0x00, 0x00, 0x0a, 0x00, 0x00, 0x00,
  0x01, 0x00, 0x00, 0x00, 0x08, 0xfc, 0xff, 0xff, 0x30, 0x00, 0x00, 0x00,
  0x73, 0x65, 0x71, 0x75, 0x65, 0x6e, 0x74, 0x69, 0x61, 0x6c, 0x5f, 0x39,
  0x5f, 0x31, 0x2f, 0x63, 0x6f, 0x6e, 0x76, 0x31, 0x64, 0x5f, 0x36, 0x5f,
  0x31, 0x2f, 0x63, 0x6f, 0x6e, 0x76, 0x6f, 0x6c, 0x75, 0x74, 0x69, 0x6f,
  0x6e, 0x2f, 0x45, 0x78, 0x70, 0x61, 0x6e, 0x64, 0x44, 0x69, 0x6d, 0x73,
  0x00, 0x00, 0x00, 0x00, 0x04, 0x00, 0x00, 0x00, 0x01, 0x00, 0x00, 0x00,
  0x01, 0x00, 0x00, 0x00, 0x0a, 0x00, 0x00, 0x00, 0x01, 0x00, 0x00, 0x00,
  0x6e, 0xfd, 0xff, 0xff, 0x00, 0x00, 0x00, 0x01, 0x14, 0x00, 0x00, 0x00,
  0x14, 0x00, 0x00, 0x00, 0x0c, 0x00, 0x00, 0x00, 0x00, 0x00, 0x00, 0x02,
  0x44, 0x00, 0x00, 0x00, 0x74, 0xfc, 0xff, 0xff, 0x34, 0x00, 0x00, 0x00,
  0x73, 0x65, 0x71, 0x75, 0x65, 0x6e, 0x74, 0x69, 0x61, 0x6c, 0x5f, 0x39,
  0x5f, 0x31, 0x2f, 0x63, 0x6f, 0x6e, 0x76, 0x31, 0x64, 0x5f, 0x36, 0x5f,
  0x31, 0x2f, 0x63, 0x6f, 0x6e, 0x76, 0x6f, 0x6c, 0x75, 0x74, 0x69, 0x6f,
  0x6e, 0x2f, 0x45, 0x78, 0x70, 0x61, 0x6e, 0x64, 0x44, 0x69, 0x6d, 0x73,
  0x2f, 0x64, 0x69, 0x6d, 0x00, 0x00, 0x00, 0x00, 0x00, 0x00, 0x00, 0x00,
  0xce, 0xfd, 0xff, 0xff, 0x00, 0x00, 0x00, 0x01, 0x14, 0x00, 0x00, 0x00,
  0x14, 0x00, 0x00, 0x00, 0x0b, 0x00, 0x00, 0x00, 0x00, 0x00, 0x00, 0x02,
  0x1c, 0x00, 0x00, 0x00, 0xd4, 0xfc, 0xff, 0xff, 0x0f, 0x00, 0x00, 0x00,
  0x61, 0x72, 0x69, 0x74, 0x68, 0x2e, 0x63, 0x6f, 0x6e, 0x73, 0x74, 0x61,
  0x6e, 0x74, 0x39, 0x00, 0x01, 0x00, 0x00, 0x00, 0x02, 0x00, 0x00, 0x00,
  0x0a, 0xfe, 0xff, 0xff, 0x00, 0x00, 0x00, 0x01, 0x14, 0x00, 0x00, 0x00,
  0x14, 0x00, 0x00, 0x00, 0x0a, 0x00, 0x00, 0x00, 0x00, 0x00, 0x00, 0x02,
  0x1c, 0x00, 0x00, 0x00, 0x10, 0xfd, 0xff, 0xff, 0x0f, 0x00, 0x00, 0x00,
  0x61, 0x72, 0x69, 0x74, 0x68, 0x2e, 0x63, 0x6f, 0x6e, 0x73, 0x74, 0x61,
  0x6e, 0x74, 0x38, 0x00, 0x00, 0x00, 0x00, 0x00, 0x9e, 0xfe, 0xff, 0xff,
  0x00, 0x00, 0x00, 0x01, 0x10, 0x00, 0x00, 0x00, 0x10, 0x00, 0x00, 0x00,
  0x09, 0x00, 0x00, 0x00, 0x1c, 0x00, 0x00, 0x00, 0x44, 0xfd, 0xff, 0xff,
  0x0f, 0x00, 0x00, 0x00, 0x61, 0x72, 0x69, 0x74, 0x68, 0x2e, 0x63, 0x6f,
  0x6e, 0x73, 0x74, 0x61, 0x6e, 0x74, 0x37, 0x00, 0x01, 0x00, 0x00, 0x00,
  0x20, 0x00, 0x00, 0x00, 0xd6, 0xfe, 0xff, 0xff, 0x00, 0x00, 0x00, 0x01,
  0x10, 0x00, 0x00, 0x00, 0x10, 0x00, 0x00, 0x00, 0x08, 0x00, 0x00, 0x00,
  0x1c, 0x00, 0x00, 0x00, 0x7c, 0xfd, 0xff, 0xff, 0x0f, 0x00, 0x00, 0x00,
  0x61, 0x72, 0x69, 0x74, 0x68, 0x2e, 0x63, 0x6f, 0x6e, 0x73, 0x74, 0x61,
  0x6e, 0x74, 0x36, 0x00, 0x01, 0x00, 0x00, 0x00, 0x01, 0x00, 0x00, 0x00,
  0x0e, 0xff, 0xff, 0xff, 0x00, 0x00, 0x00, 0x01, 0x10, 0x00, 0x00, 0x00,
  0x10, 0x00, 0x00, 0x00, 0x07, 0x00, 0x00, 0x00, 0x1c, 0x00, 0x00, 0x00,
  0xb4, 0xfd, 0xff, 0xff, 0x0f, 0x00, 0x00, 0x00, 0x61, 0x72, 0x69, 0x74,
  0x68, 0x2e, 0x63, 0x6f, 0x6e, 0x73, 0x74, 0x61, 0x6e, 0x74, 0x35, 0x00,
  0x03, 0x00, 0x00, 0x00, 0x01, 0x00, 0x00, 0x00, 0x01, 0x00, 0x00, 0x00,
  0x10, 0x00, 0x00, 0x00, 0x4e, 0xff, 0xff, 0xff, 0x00, 0x00, 0x00, 0x01,
  0x10, 0x00, 0x00, 0x00, 0x10, 0x00, 0x00, 0x00, 0x06, 0x00, 0x00, 0x00,
  0x1c, 0x00, 0x00, 0x00, 0xf4, 0xfd, 0xff, 0xff, 0x0f, 0x00, 0x00, 0x00,
  0x61, 0x72, 0x69, 0x74, 0x68, 0x2e, 0x63, 0x6f, 0x6e, 0x73, 0x74, 0x61,
  0x6e, 0x74, 0x34, 0x00, 0x02, 0x00, 0x00, 0x00, 0x20, 0x00, 0x00, 0x00,
  0x40, 0x00, 0x00, 0x00, 0x8a, 0xff, 0xff, 0xff, 0x00, 0x00, 0x00, 0x01,
  0x10, 0x00, 0x00, 0x00, 0x10, 0x00, 0x00, 0x00, 0x05, 0x00, 0x00, 0x00,
  0x1c, 0x00, 0x00, 0x00, 0x30, 0xfe, 0xff, 0xff, 0x0f, 0x00, 0x00, 0x00,
  0x61, 0x72, 0x69, 0x74, 0x68, 0x2e, 0x63, 0x6f, 0x6e, 0x73, 0x74, 0x61,
  0x6e, 0x74, 0x33, 0x00, 0x02, 0x00, 0x00, 0x00, 0x01, 0x00, 0x00, 0x00,
  0x20, 0x00, 0x00, 0x00, 0xc6, 0xff, 0xff, 0xff, 0x00, 0x00, 0x00, 0x01,
  0x10, 0x00, 0x00, 0x00, 0x10, 0x00, 0x00, 0x00, 0x04, 0x00, 0x00, 0x00,
  0x1c, 0x00, 0x00, 0x00, 0x6c, 0xfe, 0xff, 0xff, 0x0f, 0x00, 0x00, 0x00,
  0x61, 0x72, 0x69, 0x74, 0x68, 0x2e, 0x63, 0x6f, 0x6e, 0x73, 0x74, 0x61,
  0x6e, 0x74, 0x32, 0x00, 0x01, 0x00, 0x00, 0x00, 0x10, 0x00, 0x00, 0x00,
  0x00, 0x00, 0x16, 0x00, 0x18, 0x00, 0x14, 0x00, 0x00, 0x00, 0x10, 0x00,
  0x0c, 0x00, 0x08, 0x00, 0x00, 0x00, 0x00, 0x00, 0x00, 0x00, 0x07, 0x00,
  0x16, 0x00, 0x00, 0x00, 0x00, 0x00, 0x00, 0x01, 0x10, 0x00, 0x00, 0x00,
  0x10, 0x00, 0x00, 0x00, 0x03, 0x00, 0x00, 0x00, 0x1c, 0x00, 0x00, 0x00,
  0xbc, 0xfe, 0xff, 0xff, 0x0f, 0x00, 0x00, 0x00, 0x61, 0x72, 0x69, 0x74,
  0x68, 0x2e, 0x63, 0x6f, 0x6e, 0x73, 0x74, 0x61, 0x6e, 0x74, 0x31, 0x00,
  0x04, 0x00, 0x00, 0x00, 0x10, 0x00, 0x00, 0x00, 0x01, 0x00, 0x00, 0x00,
  0x03, 0x00, 0x00, 0x00, 0x01, 0x00, 0x00, 0x00, 0x00, 0x00, 0x16, 0x00,
  0x1c, 0x00, 0x18, 0x00, 0x17, 0x00, 0x10, 0x00, 0x0c, 0x00, 0x08, 0x00,
  0x00, 0x00, 0x00, 0x00, 0x00, 0x00, 0x07, 0x00, 0x16, 0x00, 0x00, 0x00,
  0x00, 0x00, 0x00, 0x01, 0x14, 0x00, 0x00, 0x00, 0x14, 0x00, 0x00, 0x00,
  0x02, 0x00, 0x00, 0x00, 0x00, 0x00, 0x00, 0x02, 0x1c, 0x00, 0x00, 0x00,
  0x1c, 0xff, 0xff, 0xff, 0x0e, 0x00, 0x00, 0x00, 0x61, 0x72, 0x69, 0x74,
  0x68, 0x2e, 0x63, 0x6f, 0x6e, 0x73, 0x74, 0x61, 0x6e, 0x74, 0x00, 0x00,
  0x01, 0x00, 0x00, 0x00, 0x03, 0x00, 0x00, 0x00, 0x00, 0x00, 0x16, 0x00,
  0x1c, 0x00, 0x18, 0x00, 0x00, 0x00, 0x14, 0x00, 0x10, 0x00, 0x0c, 0x00,
  0x00, 0x00, 0x00, 0x00, 0x08, 0x00, 0x07, 0x00, 0x16, 0x00, 0x00, 0x00,
  0x00, 0x00, 0x00, 0x01, 0x14, 0x00, 0x00, 0x00, 0x20, 0x00, 0x00, 0x00,
  0x20, 0x00, 0x00, 0x00, 0x01, 0x00, 0x00, 0x00, 0x40, 0x00, 0x00, 0x00,
  0x03, 0x00, 0x00, 0x00, 0xff, 0xff, 0xff, 0xff, 0x0a, 0x00, 0x00, 0x00,
  0x01, 0x00, 0x00, 0x00, 0x80, 0xff, 0xff, 0xff, 0x21, 0x00, 0x00, 0x00,
  0x73, 0x65, 0x72, 0x76, 0x69, 0x6e, 0x67, 0x5f, 0x64, 0x65, 0x66, 0x61,
  0x75, 0x6c, 0x74, 0x5f, 0x6b, 0x65, 0x72, 0x61, 0x73, 0x5f, 0x74, 0x65,
  0x6e, 0x73, 0x6f, 0x72, 0x5f, 0x35, 0x36, 0x3a, 0x30, 0x00, 0x00, 0x00,
  0x03, 0x00, 0x00, 0x00, 0x01, 0x00, 0x00, 0x00, 0x0a, 0x00, 0x00, 0x00,
  0x01, 0x00, 0x00, 0x00, 0x07, 0x00, 0x00, 0x00, 0x6c, 0x00, 0x00, 0x00,
  0x50, 0x00, 0x00, 0x00, 0x40, 0x00, 0x00, 0x00, 0x38, 0x00, 0x00, 0x00,
  0x24, 0x00, 0x00, 0x00, 0x14, 0x00, 0x00, 0x00, 0x04, 0x00, 0x00, 0x00,
  0xbc, 0xff, 0xff, 0xff, 0x0e, 0x00, 0x00, 0x00, 0x00, 0x00, 0x00, 0x0e,
  0xc8, 0xff, 0xff, 0xff, 0x09, 0x00, 0x00, 0x00, 0x00, 0x00, 0x00, 0x09,
  0xd4, 0xff, 0xff, 0xff, 0x11, 0x00, 0x00, 0x00, 0x00, 0x00, 0x00, 0x11,
  0x04, 0x00, 0x04, 0x00, 0x04, 0x00, 0x00, 0x00, 0xe8, 0xff, 0xff, 0xff,
  0x16, 0x00, 0x00, 0x00, 0x00, 0x00, 0x00, 0x16, 0xf4, 0xff, 0xff, 0xff,
  0x03, 0x00, 0x00, 0x00, 0x00, 0x00, 0x00, 0x03, 0x0c, 0x00, 0x0c, 0x00,
  0x0b, 0x00, 0x00, 0x00, 0x00, 0x00, 0x04, 0x00, 0x0c, 0x00, 0x00, 0x00,
  0x46, 0x00, 0x00, 0x00, 0x00, 0x00, 0x00, 0x46
};
unsigned int model_tflite_len = 12488;
